{
  "version": "1.0",
  "truncation": null,
  "padding": null,
  "added_tokens": [
    {
      "id": 0,
      "content": "<|endoftext|>",
      "single_word": false,
      "lstrip": false,
      "rstrip": false,
      "normalized": false,
      "special": true
    },
    {
      "id": 1,
      "content": "<|pad|>",
      "single_word": false,
      "lstrip": false,
      "rstrip": false,
      "normalized": false,
      "special": true
    },
    {
      "id": 2,
      "content": "<|unk|>",
      "single_word": false,
      "lstrip": false,
      "rstrip": false,
      "normalized": false,
      "special": true
    }
  ],
  "normalizer": null,
  "pre_tokenizer": {
    "type": "ByteLevel",
    "add_prefix_space": false,
    "trim_offsets": true,
    "use_regex": true
  },
  "post_processor": null,
  "decoder": {
    "type": "ByteLevel",
    "add_prefix_space": true,
    "trim_offsets": true,
    "use_regex": true
  },
  "model": {
    "type": "BPE",
    "dropout": null,
    "unk_token": "<|unk|>",
    "continuing_subword_prefix": null,
    "end_of_word_suffix": null,
    "fuse_unk": false,
    "byte_fallback": false,
    "ignore_merges": false,
    "vocab": {
      "<|endoftext|>": 0,
      "<|pad|>": 1,
      "<|unk|>": 2,
      "!": 3,
      "\"": 4,
      "#": 5,
      "$": 6,
      "%": 7,
      "&": 8,
      "'": 9,
      "(": 10,
      ")": 11,
      "*": 12,
      "+": 13,
      ",": 14,
      "-": 15,
      ".": 16,
      "/": 17,
      "0": 18,
      "1": 19,
      "2": 20,
      "3": 21,
      "4": 22,
      "5": 23,
      "6": 24,
      "7": 25,
      "8": 26,
      "9": 27,
      ":": 28,
      ";": 29,
      "<": 30,
      "=": 31,
      ">": 32,
      "?": 33,
      "@": 34,
      "A": 35,
      "B": 36,
      "C": 37,
      "D": 38,
      "E": 39,
      "F": 40,
      "G": 41,
      "H": 42,
      "I": 43,
      "J": 44,
      "K": 45,
      "L": 46,
      "M": 47,
      "N": 48,
      "O": 49,
      "P": 50,
      "Q": 51,
      "R": 52,
      "S": 53,
      "T": 54,
      "U": 55,
      "V": 56,
      "W": 57,
      "X": 58,
      "Y": 59,
      "Z": 60,
      "[": 61,
      "\\": 62,
      "]": 63,
      "^": 64,
      "_": 65,
      "`": 66,
      "a": 67,
      "b": 68,
      "c": 69,
      "d": 70,
      "e": 71,
      "f": 72,
      "g": 73,
      "h": 74,
      "i": 75,
      "j": 76,
      "k": 77,
      "l": 78,
      "m": 79,
      "n": 80,
      "o": 81,
      "p": 82,
      "q": 83,
      "r": 84,
      "s": 85,
      "t": 86,
      "u": 87,
      "v": 88,
      "w": 89,
      "x": 90,
      "y": 91,
      "z": 92,
      "{": 93,
      "|": 94,
      "}": 95,
      "~": 96,
      "¡": 97,
      "¢": 98,
      "£": 99,
      "¤": 100,
      "¥": 101,
      "¦": 102,
      "§": 103,
      "¨": 104,
      "©": 105,
      "ª": 106,
      "«": 107,
      "¬": 108,
      "®": 109,
      "¯": 110,
      "°": 111,
      "±": 112,
      "²": 113,
      "³": 114,
      "´": 115,
      "µ": 116,
      "¶": 117,
      "·": 118,
      "¸": 119,
      "¹": 120,
      "º": 121,
      "»": 122,
      "¼": 123,
      "½": 124,
      "¾": 125,
      "¿": 126,
      "Â": 127,
      "Ã": 128,
      "Ä": 129,
      "Å": 130,
      "Æ": 131,
      "Ç": 132,
      "È": 133,
      "É": 134,
      "Ê": 135,
      "Ë": 136,
      "Ì": 137,
      "Í": 138,
      "Î": 139,
      "Ï": 140,
      "Ð": 141,
      "Ñ": 142,
      "Ò": 143,
      "Ó": 144,
      "Ô": 145,
      "Õ": 146,
      "Ö": 147,
      "×": 148,
      "Ø": 149,
      "Ù": 150,
      "Ú": 151,
      "Û": 152,
      "Ü": 153,
      "Ý": 154,
      "Þ": 155,
      "ß": 156,
      "à": 157,
      "á": 158,
      "â": 159,
      "ã": 160,
      "ä": 161,
      "å": 162,
      "æ": 163,
      "ç": 164,
      "è": 165,
      "é": 166,
      "ê": 167,
      "ë": 168,
      "ì": 169,
      "í": 170,
      "î": 171,
      "ï": 172,
      "ð": 173,
      "ñ": 174,
      "ó": 175,
      "ô": 176,
      "Ā": 177,
      "ā": 178,
      "Ă": 179,
      "ă": 180,
      "Ą": 181,
      "ą": 182,
      "Ć": 183,
      "ć": 184,
      "Ĉ": 185,
      "ĉ": 186,
      "Ċ": 187,
      "ċ": 188,
      "Č": 189,
      "č": 190,
      "Ď": 191,
      "ď": 192,
      "Đ": 193,
      "đ": 194,
      "Ē": 195,
      "ē": 196,
      "Ĕ": 197,
      "ĕ": 198,
      "Ė": 199,
      "ė": 200,
      "Ę": 201,
      "ę": 202,
      "Ě": 203,
      "ě": 204,
      "Ĝ": 205,
      "ĝ": 206,
      "Ğ": 207,
      "ğ": 208,
      "Ġ": 209,
      "ġ": 210,
      "Ģ": 211,
      "ģ": 212,
      "Ĥ": 213,
      "ĥ": 214,
      "Ħ": 215,
      "ħ": 216,
      "Ĩ": 217,
      "ĩ": 218,
      "Ī": 219,
      "ī": 220,
      "Ĭ": 221,
      "ĭ": 222,
      "Į": 223,
      "į": 224,
      "İ": 225,
      "ı": 226,
      "Ĳ": 227,
      "ĳ": 228,
      "Ĵ": 229,
      "ĵ": 230,
      "Ķ": 231,
      "ķ": 232,
      "ĸ": 233,
      "Ĺ": 234,
      "ĺ": 235,
      "Ļ": 236,
      "ļ": 237,
      "Ľ": 238,
      "ľ": 239,
      "Ŀ": 240,
      "ŀ": 241,
      "Ł": 242,
      "ł": 243,
      "Ń": 244,
      "Ġt": 245,
      "Ġa": 246,
      "he": 247,
      "in": 248,
      "re": 249,
      "on": 250,
      "Ġthe": 251,
      "er": 252,
      "Ġs": 253,
      "at": 254,
      "čĊ": 255,
      "Ġo": 256,
      "Ġw": 257,
      "en": 258,
      "Ġc": 259,
      "es": 260,
      "an": 261,
      "or": 262,
      "it": 263,
      "is": 264,
      "Ġan": 265,
      "Ġf": 266,
      "ou": 267,
      "Ġp": 268,
      "Ġb": 269,
      "ing": 270,
      "ed": 271,
      "al": 272,
      "ar": 273,
      "Ġin": 274,
      "Ġto": 275,
      "Ġof": 276,
      "Ġm": 277,
      "Ġand": 278,
      "Ġd": 279,
      "ion": 280,
      "as": 281,
      "ic": 282,
      "le": 283,
      "ĠĠ": 284,
      "om": 285,
      "Ġh": 286,
      "Ġth": 287,
      "ent": 288,
      "il": 289,
      "Ġre": 290,
      "Ġl": 291,
      "st": 292,
      "ct": 293,
      "Ġn": 294,
      "ro": 295,
      "Ġe": 296,
      "ve": 297,
      "ĠT": 298,
      "et": 299,
      "Ġg": 300,
      "Ġy": 301,
      "Ġis": 302,
      "ĠS": 303,
      "el": 304,
      "ĠI": 305,
      "id": 306,
      "ut": 307,
      "ĠA": 308,
      "ot": 309,
      "am": 310,
      "ol": 311,
      "ĠC": 312,
      "Ġbe": 313,
      "ur": 314,
      "ow": 315,
      "Ġfor": 316,
      "ly": 317,
      "ad": 318,
      "im": 319,
      "us": 320,
      "ac": 321,
      "Ġon": 322,
      "Ġyou": 323,
      "ay": 324,
      "ig": 325,
      "ation": 326,
      "ers": 327,
      "âĢ": 328,
      "ith": 329,
      "un": 330,
      "Ġst": 331,
      "Ġthat": 332,
      "ir": 333,
      "Ġwith": 334,
      "ĠM": 335,
      "ce": 336,
      "ĠĠĠĠ": 337,
      "ch": 338,
      "Ġhe": 339,
      "Ġ1": 340,
      "ver": 341,
      "ĠP": 342,
      "Ġas": 343,
      "ĠB": 344,
      "ag": 345,
      "ul": 346,
      "est": 347,
      "Ġit": 348,
      "Ġ(": 349,
      "if": 350,
      "Ġal": 351,
      "qu": 352,
      "Ġcon": 353,
      "ĠThe": 354,
      "os": 355,
      "od": 356,
      "ter": 357,
      "Ġwh": 358,
      "ĠH": 359,
      "Ġare": 360,
      "ate": 361,
      "ill": 362,
      "um": 363,
      "iv": 364,
      "Ġpro": 365,
      "ra": 366,
      "Ġor": 367,
      "ist": 368,
      "em": 369,
      "ĠW": 370,
      "and": 371,
      "Ġcom": 372,
      "her": 373,
      "ĠD": 374,
      "Ġwas": 375,
      "Ġ2": 376,
      "th": 377,
      "Ġfr": 378,
      "ĠR": 379,
      "ĠF": 380,
      "op": 381,
      "ab": 382,
      "Ġv": 383,
      "ke": 384,
      "ess": 385,
      "Ġex": 386,
      "ld": 387,
      "ere": 388,
      "Ġat": 389,
      "oun": 390,
      "pp": 391,
      "Ġde": 392,
      "ore": 393,
      "ĠL": 394,
      "Ġse": 395,
      "Ġr": 396,
      "se": 397,
      "Ġby": 398,
      "Ġne": 399,
      "ant": 400,
      "Ġha": 401,
      "igh": 402,
      "ive": 403,
      "ity": 404,
      "ĠG": 405,
      "ain": 406,
      "res": 407,
      "Ġfrom": 408,
      "ĠE": 409,
      "ort": 410,
      "âĢĻ": 411,
      "Ġsu": 412,
      "ĠN": 413,
      "oc": 414,
      "art": 415,
      "ri": 416,
      "ment": 417,
      "ect": 418,
      "Ġ\"": 419,
      "Ġsh": 420,
      "'s": 421,
      "Ġus": 422,
      "Ġcan": 423,
      "ies": 424,
      "all": 425,
      "00": 426,
      "Ġnot": 427,
      "ust": 428,
      "Ġch": 429,
      "end": 430,
      "Ġthis": 431,
      "Ġhave": 432,
      "ard": 433,
      "ions": 434,
      "Ġwor": 435,
      "Ġyour": 436,
      "ĠJ": 437,
      "ud": 438,
      "Ġun": 439,
      "ĠO": 440,
      "our": 441,
      "Ġle": 442,
      "pt": 443,
      "Ġpl": 444,
      "ight": 445,
      "Ġwe": 446,
      "ould": 447,
      "Ġsp": 448,
      "ie": 449,
      "out": 450,
      "age": 451,
      "Ġqu": 452,
      "ome": 453,
      "ure": 454,
      "ack": 455,
      "up": 456,
      "ial": 457,
      "ell": 458,
      "Ġab": 459,
      "ak": 460,
      "ip": 461,
      "ine": 462,
      "ge": 463,
      "ast": 464,
      "ost": 465,
      "gh": 466,
      "Ġk": 467,
      "ĠĠĠ": 468,
      "ĠIn": 469,
      "ich": 470,
      "ide": 471,
      "per": 472,
      "Ġwill": 473,
      "ok": 474,
      "Ġ'": 475,
      "ated": 476,
      "ass": 477,
      "og": 478,
      "ire": 479,
      "Ġcomp": 480,
      "Ġj": 481,
      "Ġwhe": 482,
      "ame": 483,
      "Ġint": 484,
      "The": 485,
      "Ġtr": 486,
      "Ġhis": 487,
      "ther": 488,
      "ec": 489,
      "are": 490,
      "ĠU": 491,
      "ĠâĢ": 492,
      "pl": 493,
      "ound": 494,
      "Ġcont": 495,
      "ice": 496,
      "ber": 497,
      "Ġ19": 498,
      "ear": 499,
      "ong": 500,
      "Ġall": 501,
      "ally": 502,
      "Ġar": 503,
      "ue": 504,
      "der": 505,
      "Ġen": 506,
      "ans": 507,
      "iz": 508,
      "Ġad": 509,
      "ff": 510,
      "Ġhas": 511,
      "Ġbut": 512,
      "Ġdo": 513,
      "ough": 514,
      "Ġcl": 515,
      "ia": 516,
      "able": 517,
      "ind": 518,
      "act": 519,
      "ap": 520,
      "Ġgo": 521,
      "ĠK": 522,
      "so": 523,
      "ous": 524,
      "orm": 525,
      "Ġout": 526,
      "cl": 527,
      "ĠĠĠĠĠĠĠĠ": 528,
      "Ġtheir": 529,
      "ult": 530,
      "ĠSt": 531,
      "Ġres": 532,
      "Ġme": 533,
      "ĠY": 534,
      "cc": 535,
      "ep": 536,
      "Ġim": 537,
      "ake": 538,
      "ction": 539,
      "Ġwhich": 540,
      "ary": 541,
      "Ġone": 542,
      "ib": 543,
      "ence": 544,
      "one": 545,
      "ime": 546,
      "Ġup": 547,
      "ase": 548,
      "nt": 549,
      "ail": 550,
      "ook": 551,
      "av": 552,
      "ations": 553,
      "ach": 554,
      "ite": 555,
      "Ġthey": 556,
      "ry": 557,
      "Ġman": 558,
      "Ġmore": 559,
      "ub": 560,
      "ance": 561,
      "ace": 562,
      "ign": 563,
      "du": 564,
      "ks": 565,
      "ĠčĊ": 566,
      "ĠTh": 567,
      "ile": 568,
      "Ġalso": 569,
      "Ġte": 570,
      "Ġso": 571,
      "ical": 572,
      "Ġapp": 573,
      "Ġ20": 574,
      "Ġabout": 575,
      "Ġ-": 576,
      "own": 577,
      "sw": 578,
      "ĠV": 579,
      "form": 580,
      "Ġev": 581,
      "ory": 582,
      "Ġ3": 583,
      "Ġwho": 584,
      "ĠCh": 585,
      "ount": 586,
      "Ġother": 587,
      "very": 588,
      "ish": 589,
      "Ġpr": 590,
      "reat": 591,
      "ew": 592,
      "Ġher": 593,
      "Ġpart": 594,
      "Ġquest": 595,
      "ord": 596,
      "ang": 597,
      "Ġsc": 598,
      "Ġ=": 599,
      "vel": 600,
      "Ġper": 601,
      "Ġ.": 602,
      "ition": 603,
      "Ġli": 604,
      "ents": 605,
      "ru": 606,
      "Ġmy": 607,
      "Ġoff": 608,
      "ree": 609,
      "Ġwere": 610,
      "ĠIt": 611,
      "Ġcomm": 612,
      "erv": 613,
      "Ġhad": 614,
      "xt": 615,
      "ian": 616,
      "ose": 617,
      "ces": 618,
      "urn": 619,
      "Ġpre": 620,
      "Ġdis": 621,
      "ov": 622,
      "erson": 623,
      "ond": 624,
      "ll": 625,
      "Ġnew": 626,
      "ress": 627,
      "int": 628,
      "Ġro": 629,
      "ick": 630,
      "Ġansw": 631,
      "ays": 632,
      "irst": 633,
      "port": 634,
      "wo": 635,
      "ĠHe": 636,
      "Ġif": 637,
      "Ġits": 638,
      "Ġag": 639,
      "ens": 640,
      "fter": 641,
      "In": 642,
      "ove": 643,
      "Ġtime": 644,
      "mer": 645,
      "Ġany": 646,
      "Ġsome": 647,
      "Ġkn": 648,
      "oll": 649,
      "Ġpe": 650,
      "Ġrec": 651,
      "amp": 652,
      "ark": 653,
      "Ġyear": 654,
      "Ġdes": 655,
      "ings": 656,
      "Ġthem": 657,
      "ĠAn": 658,
      "Ġwork": 659,
      "Ġwhen": 660,
      "ors": 661,
      "Ġgr": 662,
      ").": 663,
      "te": 664,
      "ild": 665,
      "fere": 666,
      "Ġ,": 667,
      "ode": 668,
      "Ġbeen": 669,
      "Ġinto": 670,
      "Ġneed": 671,
      "clud": 672,
      "ob": 673,
      "ater": 674,
      "</": 675,
      "Ġwould": 676,
      "wn": 677,
      "Ġ201": 678,
      "Ġover": 679,
      "Ġsa": 680,
      "ject": 681,
      "ople": 682,
      "Ġour": 683,
      "Ġ|": 684,
      "Ġthere": 685,
      "ph": 686,
      "iven": 687,
      "Ġget": 688,
      "Ġfirst": 689,
      "rit": 690,
      "lic": 691,
      "ates": 692,
      "Ġtwo": 693,
      "yp": 694,
      "Ġlike": 695,
      "oy": 696,
      "Ġ4": 697,
      "Ġthan": 698,
      "Ġph": 699,
      "Ġbec": 700,
      "gr": 701,
      "Ġfe": 702,
      "ely": 703,
      "),": 704,
      "ne": 705,
      "Ġshe": 706,
      "Ġprov": 707,
      "aus": 708,
      "ft": 709,
      "Ġuse": 710,
      "',": 711,
      "ade": 712,
      "Ġmay": 713,
      "âĢĿ": 714,
      "Ġacc": 715,
      "hed": 716,
      "Ġact": 717,
      "we": 718,
      "Ġpeople": 719,
      "Ġ200": 720,
      "Ġanswer": 721,
      "Ġwhat": 722,
      "red": 723,
      "ict": 724,
      "ual": 725,
      "les": 726,
      "Ġam": 727,
      "Ġinclud": 728,
      "rough": 729,
      "tern": 730,
      "Ġind": 731,
      "ood": 732,
      "old": 733,
      "ific": 734,
      "Ġ5": 735,
      "ons": 736,
      "ool": 737,
      "Ġbet": 738,
      "ck": 739,
      "--": 740,
      "ious": 741,
      "Ġno": 742,
      "ning": 743,
      "ener": 744,
      "ss": 745,
      "erm": 746,
      "Ġhow": 747,
      "ĠUn": 748,
      "Ġplay": 749,
      "lect": 750,
      "Ġbl": 751,
      "ont": 752,
      "ath": 753,
      "ased": 754,
      "ĠThis": 755,
      "Ġgiven": 756,
      "Ġunder": 757,
      "Ġrel": 758,
      "Ġhim": 759,
      "Ġjust": 760,
      "iew": 761,
      "ink": 762,
      "Ġadd": 763,
      "Ġafter": 764,
      "ĠâĢĵ": 765,
      "Ġret": 766,
      "Ġshould": 767,
      "Ġnum": 768,
      "Ġword": 769,
      "Ġonly": 770,
      "lp": 771,
      "Ġpos": 772,
      "ered": 773,
      "ĠĠĠĠĠĠĠ": 774,
      "Ġatt": 775,
      "ren": 776,
      "Ġbu": 777,
      "Ġinv": 778,
      "ask": 779,
      "Ġcol": 780,
      "Ġfl": 781,
      "iss": 782,
      "Ġem": 783,
      "Ġhelp": 784,
      "Ġcons": 785,
      "Ġdif": 786,
      "ĠYou": 787,
      "Ġback": 788,
      "ĠÐ": 789,
      "Ġsuch": 790,
      "Ġspec": 791,
      "ating": 792,
      "..": 793,
      "ĠâĢľ": 794,
      "Ġsy": 795,
      "ied": 796,
      "hen": 797,
      "Ġprodu": 798,
      "eth": 799,
      "Ġwhere": 800,
      "ful": 801,
      "'t": 802,
      "ata": 803,
      "Ġmost": 804,
      "19": 805,
      "Ġthrough": 806,
      "Ġmake": 807,
      "ise": 808,
      "ited": 809,
      "Ġserv": 810,
      "Ġinc": 811,
      "als": 812,
      "ollow": 813,
      "ting": 814,
      "oth": 815,
      "ced": 816,
      "Ġpass": 817,
      "get": 818,
      "Ġcre": 819,
      "ational": 820,
      "ract": 821,
      "ible": 822,
      "ities": 823,
      "fore": 824,
      "Ġquestion": 825,
      "rib": 826,
      "aw": 827,
      "Ġmany": 828,
      "pect": 829,
      "Ġ&": 830,
      "Ġimp": 831,
      "ert": 832,
      "ments": 833,
      "uring": 834,
      "Ġco": 835,
      "Ġent": 836,
      "Ġsec": 837,
      "ĠWe": 838,
      "ock": 839,
      "elf": 840,
      "Ġset": 841,
      "oup": 842,
      "Ġknow": 843,
      "Ġthen": 844,
      ");": 845,
      "Ġsub": 846,
      "ward": 847,
      "Ġcould": 848,
      "hes": 849,
      "ife": 850,
      "Ġinst": 851,
      "Ġass": 852,
      "ause": 853,
      "ason": 854,
      "hip": 855,
      "Ġwell": 856,
      "Ġtyp": 857,
      "cess": 858,
      "ics": 859,
      "Ġfun": 860,
      "Ġreg": 861,
      "Ġrequ": 862,
      "Ġlook": 863,
      "Ġtra": 864,
      "ily": 865,
      "ative": 866,
      "hat": 867,
      "oint": 868,
      "iel": 869,
      "Ġwant": 870,
      "Ġrem": 871,
      "row": 872,
      "Ġperson": 873,
      "io": 874,
      "Ð¾": 875,
      "put": 876,
      "Ġused": 877,
      "Ġfollow": 878,
      "land": 879,
      "Ġbr": 880,
      "any": 881,
      "stem": 882,
      "Ġthese": 883,
      "ange": 884,
      "Ġloc": 885,
      "ts": 886,
      "ular": 887,
      "ivers": 888,
      "ãģ": 889,
      "Ġquestions": 890,
      "gan": 891,
      "Ġval": 892,
      "ient": 893,
      "Ġsee": 894,
      "Ġ6": 895,
      "com": 896,
      "Ġcor": 897,
      "ower": 898,
      "ident": 899,
      "Ġke": 900,
      "Ġsupp": 901,
      "Ġyears": 902,
      "olog": 903,
      "Ġob": 904,
      "ng": 905,
      "ĠRe": 906,
      "Ġfin": 907,
      "ices": 908,
      "Ġstud": 909,
      "Ġevery": 910,
      "Ġlist": 911,
      "ork": 912,
      "Ġtask": 913,
      "ures": 914,
      "Ġfind": 915,
      "day": 916,
      "Ġsaid": 917,
      "feren": 918,
      "Ġsm": 919,
      "Ġend": 920,
      "chool": 921,
      "Ġcomple": 922,
      "ption": 923,
      "Ġstart": 924,
      "ys": 925,
      "Ġinform": 926,
      "ues": 927,
      "Ġmod": 928,
      "li": 929,
      "Ġgener": 930,
      "Ġeach": 931,
      "Ġdid": 932,
      "other": 933,
      "Ġform": 934,
      "Ġdec": 935,
      "ee": 936,
      "ility": 937,
      "ĠCom": 938,
      "arch": 939,
      "Th": 940,
      "Ġac": 941,
      "aking": 942,
      "Ġlong": 943,
      "Ġway": 944,
      "tt": 945,
      "20": 946,
      "ĠAr": 947,
      "air": 948,
      "ug": 949,
      "Ġpres": 950,
      "Ġcar": 951,
      "rop": 952,
      "velop": 953,
      "code": 954,
      "meric": 955,
      "ween": 956,
      "ank": 957,
      "ield": 958,
      "tle": 959,
      "Ġext": 960,
      "Ġreturn": 961,
      "its": 962,
      "Ġsim": 963,
      "ble": 964,
      "Ġ$": 965,
      "Ġstr": 966,
      "Ġins": 967,
      "Ðµ": 968,
      "Ġcall": 969,
      "Ġexper": 970,
      "anc": 971,
      "irect": 972,
      "uch": 973,
      "ix": 974,
      "Ġown": 975,
      "Ġbefore": 976,
      "Ġsent": 977,
      "ax": 978,
      "ames": 979,
      "Ġvar": 980,
      "ĠAl": 981,
      "Ġfil": 982,
      "Ġread": 983,
      "Ġ{": 984,
      "ins": 985,
      "ex": 986,
      "Ġagain": 987,
      "Ġbel": 988,
      "Ġdet": 989,
      "pr": 990,
      "Ġbetween": 991,
      "ash": 992,
      "led": 993,
      "gt": 994,
      "Ġeff": 995,
      "Ġwhile": 996,
      "Ġhigh": 997,
      "Ġart": 998,
      "Ġpol": 999,
      "Ġusing": 1000,
      "way": 1001,
      "iet": 1002,
      "``": 1003,
      "ublic": 1004,
      "\",": 1005,
      "ever": 1006,
      "Ġdown": 1007,
      "Ġbeing": 1008,
      "ner": 1009,
      "Ġdef": 1010,
      "ĠNew": 1011,
      "iness": 1012,
      "Ġ7": 1013,
      "Ġgreat": 1014,
      "Ġ18": 1015,
      "ten": 1016,
      ".\"": 1017,
      "lt": 1018,
      "Ġtrans": 1019,
      "Ġgu": 1020,
      "ale": 1021,
      "ience": 1022,
      "Ġright": 1023,
      "Ġgood": 1024,
      "ize": 1025,
      "ĠFor": 1026,
      "Ġdoes": 1027,
      "Ġsur": 1028,
      "Ġvery": 1029,
      "az": 1030,
      "Ġmade": 1031,
      "Ġser": 1032,
      "Ġ10": 1033,
      "Ġdr": 1034,
      "Ġmem": 1035,
      "Ġinformation": 1036,
      "Ġbus": 1037,
      "ric": 1038,
      "ute": 1039,
      "ives": 1040,
      "Ġsame": 1041,
      "Ġnumber": 1042,
      "Ġi": 1043,
      "ern": 1044,
      "Ġmin": 1045,
      "pre": 1046,
      "ull": 1047,
      "Ð°": 1048,
      "âĢĵ": 1049,
      "ĠIf": 1050,
      "Ġ8": 1051,
      "ef": 1052,
      "ferent": 1053,
      "Ġinter": 1054,
      "ages": 1055,
      "Ġlead": 1056,
      "ouse": 1057,
      "Ġresult": 1058,
      "raph": 1059,
      "Ġwords": 1060,
      "Ġshow": 1061,
      "Ġsystem": 1062,
      "ĠSh": 1063,
      "au": 1064,
      "Ġnow": 1065,
      "Ġday": 1066,
      "Ġchar": 1067,
      "Ġfam": 1068,
      "Ġeven": 1069,
      "oot": 1070,
      "Ġfound": 1071,
      "Ġrep": 1072,
      "Ġpar": 1073,
      "ince": 1074,
      "Ġche": 1075,
      "Ġlast": 1076,
      "ually": 1077,
      "Ġclass": 1078,
      "ton": 1079,
      "Ġposs": 1080,
      "Ġdata": 1081,
      "akes": 1082,
      "ather": 1083,
      "ah": 1084,
      "orn": 1085,
      "ĠPro": 1086,
      "Ġstate": 1087,
      "Ġdifferent": 1088,
      "oh": 1089,
      "ample": 1090,
      "Ġ[": 1091,
      "Ġexp": 1092,
      "bers": 1093,
      "Ġhome": 1094,
      "ĠCl": 1095,
      "ĠAmeric": 1096,
      "enc": 1097,
      "atch": 1098,
      "Ġrun": 1099,
      "Ġop": 1100,
      "ty": 1101,
      "Ã©": 1102,
      "Ġcount": 1103,
      "Ġdevelop": 1104,
      "Ġworld": 1105,
      "Ġthree": 1106,
      "ines": 1107,
      "alk": 1108,
      "Ġmon": 1109,
      "ution": 1110,
      "ĠFr": 1111,
      "ands": 1112,
      "Ġear": 1113,
      "ave": 1114,
      "ÑĤ": 1115,
      "Ġsign": 1116,
      "Ġplace": 1117,
      "Ġbecause": 1118,
      "Ġdisc": 1119,
      "ĠAs": 1120,
      "Ġtake": 1121,
      "Ġevent": 1122,
      "Ġmed": 1123,
      "ven": 1124,
      "ets": 1125,
      "Ġbest": 1126,
      "ement": 1127,
      "Ġra": 1128,
      "Ð¸": 1129,
      "ï¼": 1130,
      "Ġprovid": 1131,
      "alth": 1132,
      "Ġ0": 1133,
      "ality": 1134,
      "eng": 1135,
      "gram": 1136,
      "Ġdesign": 1137,
      "Ġdon": 1138,
      "ted": 1139,
      "iving": 1140,
      "Ġteam": 1141,
      "view": 1142,
      "ify": 1143,
      "Ġboth": 1144,
      "chn": 1145,
      "Ġ/": 1146,
      "Ġmuch": 1147,
      "ants": 1148,
      "ision": 1149,
      "Ġcur": 1150,
      "Ġlife": 1151,
      "Ġav": 1152,
      "Ġele": 1153,
      "man": 1154,
      "\".": 1155,
      "Ġtry": 1156,
      "Ġ199": 1157,
      "ars": 1158,
      "uc": 1159,
      "imes": 1160,
      "ms": 1161,
      "000": 1162,
      "rect": 1163,
      "ized": 1164,
      "Ġ9": 1165,
      "Ġaround": 1166,
      "bs": 1167,
      "Ġoper": 1168,
      "Ġaut": 1169,
      "ĠDe": 1170,
      "ature": 1171,
      "els": 1172,
      "ired": 1173,
      "ĠLe": 1174,
      "Ġlar": 1175,
      "=\"": 1176,
      "Ġref": 1177,
      "ĠQ": 1178,
      "Ġcreate": 1179,
      "ĠHow": 1180,
      "Ġadv": 1181,
      "lease": 1182,
      "line": 1183,
      "ĠAnd": 1184,
      "Ġed": 1185,
      "Ġthose": 1186,
      "Ġcent": 1187,
      "ness": 1188,
      "oad": 1189,
      "Ġduring": 1190,
      "ving": 1191,
      "Ġmus": 1192,
      "ished": 1193,
      "ways": 1194,
      "Ġsk": 1195,
      "ĠPerson": 1196,
      "ek": 1197,
      "ruct": 1198,
      "Ġchild": 1199,
      "ases": 1200,
      "Ġimport": 1201,
      "Ġdirect": 1202,
      "ä¸": 1203,
      "Ġgroup": 1204,
      "Ġprocess": 1205,
      "Ġstory": 1206,
      "con": 1207,
      "Ġsupport": 1208,
      "Ġfact": 1209,
      "Ġdist": 1210,
      "Ġthink": 1211,
      "rent": 1212,
      "This": 1213,
      "Ġmark": 1214,
      "uman": 1215,
      "Ġsecond": 1216,
      "Ġla": 1217,
      "Ġest": 1218,
      "ically": 1219,
      "ists": 1220,
      "ural": 1221,
      "Ġcontin": 1222,
      "Ġbusiness": 1223,
      "Ġproduct": 1224,
      "ral": 1225,
      "Ġbo": 1226,
      "Ġresp": 1227,
      "ger": 1228,
      "ĠSp": 1229,
      "Ġwrit": 1230,
      "ier": 1231,
      "Ġel": 1232,
      "ĠAd": 1233,
      "Ġpartic": 1234,
      "Ġhere": 1235,
      "ention": 1236,
      "ĠĠĠĠĠĠĠĠĠĠĠ": 1237,
      "Ġcare": 1238,
      "Ġ}": 1239,
      "ĠSe": 1240,
      "St": 1241,
      "ustom": 1242,
      "Ġmain": 1243,
      "Ġsom": 1244,
      "ĠThey": 1245,
      "arm": 1246,
      "Ġincluding": 1247,
      "aj": 1248,
      "Ġ`": 1249,
      "ãĢ": 1250,
      "Re": 1251,
      "Ġsol": 1252,
      "Ġschool": 1253,
      "ple": 1254,
      "Ġname": 1255,
      "Ġfollowing": 1256,
      "cept": 1257,
      "ĠShe": 1258,
      "Ġbook": 1259,
      "read": 1260,
      "Ġlit": 1261,
      "Ġ<": 1262,
      "Ġbuild": 1263,
      "Ġcommun": 1264,
      "Ġcontain": 1265,
      "Ġpop": 1266,
      "nd": 1267,
      "Ġmov": 1268,
      "uss": 1269,
      "Ġconf": 1270,
      "ann": 1271,
      "iversity": 1272,
      "ined": 1273,
      "pos": 1274,
      "vern": 1275,
      "Ġprogram": 1276,
      "ik": 1277,
      "ĠWh": 1278,
      "ody": 1279,
      "self": 1280,
      "10": 1281,
      "Ġpoint": 1282,
      "inal": 1283,
      "Ġsl": 1284,
      "Ġprovide": 1285,
      "cent": 1286,
      "Ġvis": 1287,
      "gg": 1288,
      ".,": 1289,
      "Ġperform": 1290,
      "Ð½": 1291,
      "Ġallow": 1292,
      "ivid": 1293,
      "Ġhead": 1294,
      "Ġprof": 1295,
      "stand": 1296,
      "Ġmust": 1297,
      "err": 1298,
      "ional": 1299,
      "Ġconst": 1300,
      "ury": 1301,
      "ope": 1302,
      "ext": 1303,
      "ross": 1304,
      "ĠSc": 1305,
      "outh": 1306,
      "Ġinf": 1307,
      "Ġpur": 1308,
      "iqu": 1309,
      "ĠInd": 1310,
      "ĠCon": 1311,
      "ved": 1312,
      "Ġthough": 1313,
      "Ġdel": 1314,
      "Ġopen": 1315,
      "Ġstill": 1316,
      "arn": 1317,
      "Ġtop": 1318,
      "Ġcour": 1319,
      "Ġhand": 1320,
      "Ġsmall": 1321,
      "Ġgame": 1322,
      "----": 1323,
      "Ġalways": 1324,
      "nect": 1325,
      "ĠOn": 1326,
      "lish": 1327,
      "less": 1328,
      "Ġgl": 1329,
      "Ġeas": 1330,
      "Ġcle": 1331,
      "Ġtechn": 1332,
      "Ġreal": 1333,
      "gin": 1334,
      "ology": 1335,
      "Ġfield": 1336,
      "Ġexpl": 1337,
      "Ñģ": 1338,
      "Ġnext": 1339,
      "Ġexample": 1340,
      "Ġinvol": 1341,
      "Ġwithout": 1342,
      "ital": 1343,
      "reen": 1344,
      "oid": 1345,
      "ense": 1346,
      "Ġcr": 1347,
      "ĠIs": 1348,
      "ves": 1349,
      "Ġrest": 1350,
      "orth": 1351,
      "Ġanother": 1352,
      "çļ": 1353,
      "It": 1354,
      "ator": 1355,
      "ĠZ": 1356,
      "Ð¾Ð": 1357,
      "Ġrece": 1358,
      "çļĦ": 1359,
      "Ġprev": 1360,
      "Ġincre": 1361,
      "Ġbro": 1362,
      "ery": 1363,
      "Ġequ": 1364,
      "Ġcorrect": 1365,
      "Ġfew": 1366,
      "to": 1367,
      "ared": 1368,
      "Ġpost": 1369,
      "Ġdesc": 1370,
      "app": 1371,
      "ron": 1372,
      "Ġorgan": 1373,
      "Ġdep": 1374,
      "ateg": 1375,
      "ends": 1376,
      "ÑĢ": 1377,
      "par": 1378,
      "ining": 1379,
      "the": 1380,
      "Ġiss": 1381,
      "Ġhapp": 1382,
      "ĠGr": 1383,
      "ccess": 1384,
      "ĠThere": 1385,
      "ĠBut": 1386,
      "Ġwater": 1387,
      "ball": 1388,
      "ead": 1389,
      "Ġtri": 1390,
      "Ġpublic": 1391,
      "ism": 1392,
      "Ġshort": 1393,
      "Ġfeel": 1394,
      "ified": 1395,
      "ote": 1396,
      "Ġsing": 1397,
      "ĠCol": 1398,
      "son": 1399,
      "ived": 1400,
      "ling": 1401,
      "We": 1402,
      "Ġcustom": 1403,
      "Ġsoc": 1404,
      "Ġcreat": 1405,
      "Ġturn": 1406,
      "ird": 1407,
      "ĠTr": 1408,
      "erest": 1409,
      "Ġcompany": 1410,
      "Ġfamily": 1411,
      "ï¼Į": 1412,
      "ething": 1413,
      "Ġfri": 1414,
      "Ġphr": 1415,
      "ially": 1416,
      "Ġproper": 1417,
      "Ġreason": 1418,
      "Ġ12": 1419,
      "rol": 1420,
      "Ġbased": 1421,
      "ĠBl": 1422,
      "Ġpat": 1423,
      "ohn": 1424,
      "Ġfour": 1425,
      "itive": 1426,
      "Ġcome": 1427,
      "ĠEng": 1428,
      "ately": 1429,
      "Ġlove": 1430,
      "Ġsentence": 1431,
      "Ġplan": 1432,
      "Ġì": 1433,
      "Ġarea": 1434,
      "ina": 1435,
      "vers": 1436,
      "Ġeffect": 1437,
      "Ġorder": 1438,
      "idd": 1439,
      "Ġwon": 1440,
      "Ġtoo": 1441,
      "aut": 1442,
      "Ġproject": 1443,
      "UR": 1444,
      "br": 1445,
      "Ġhist": 1446,
      "Ġpassage": 1447,
      "angu": 1448,
      "ards": 1449,
      "sp": 1450,
      "ĠMar": 1451,
      "Ġmet": 1452,
      "ĠAmerican": 1453,
      "iety": 1454,
      "ument": 1455,
      "Ġrecord": 1456,
      "Ġask": 1457,
      "Ġpresent": 1458,
      "ĠBe": 1459,
      "Ġpossible": 1460,
      "und": 1461,
      "Ġide": 1462,
      "ĠPl": 1463,
      "oss": 1464,
      "work": 1465,
      "Ġimportant": 1466,
      "Ġstep": 1467,
      "Ġconsid": 1468,
      "Ġagainst": 1469,
      "Ġmult": 1470,
      "ĠUnited": 1471,
      "Ġpower": 1472,
      "Ġmat": 1473,
      "Ġvalue": 1474,
      "Ġappro": 1475,
      "Ġspecific": 1476,
      "Ġ198": 1477,
      "rite": 1478,
      "Ġwom": 1479,
      "Ġes": 1480,
      "Ġreally": 1481,
      "ley": 1482,
      "Ġopp": 1483,
      "ER": 1484,
      "Ġ15": 1485,
      "ĠTo": 1486,
      "ference": 1487,
      "You": 1488,
      "rist": 1489,
      "Ġgoing": 1490,
      "Ġprom": 1491,
      "Ġobject": 1492,
      "omm": 1493,
      "Ġreport": 1494,
      "Ġsit": 1495,
      "Ġavail": 1496,
      "Ġlet": 1497,
      "Ġsomething": 1498,
      "til": 1499,
      "ior": 1500,
      "Ġbetter": 1501,
      "Ġsay": 1502,
      "ividual": 1503,
      "ium": 1504,
      "ploy": 1505,
      "ering": 1506,
      "Ġmanag": 1507,
      "Ġsince": 1508,
      "Ġarr": 1509,
      "__": 1510,
      "Ġkeep": 1511,
      "ences": 1512,
      "Ġeng": 1513,
      "Ġunderstand": 1514,
      "ertain": 1515,
      "Ġbelie": 1516,
      "Ġold": 1517,
      "Ġwin": 1518,
      "Ġmonth": 1519,
      "Ġhealth": 1520,
      "()": 1521,
      "ĠOr": 1522,
      "Ġwithin": 1523,
      "Ġtest": 1524,
      "Ġfree": 1525,
      "Ġservice": 1526,
      "ferences": 1527,
      "Ġleft": 1528,
      "ump": 1529,
      "bo": 1530,
      "ĠPh": 1531,
      "sc": 1532,
      "Ġinterest": 1533,
      "Ġorig": 1534,
      "ring": 1535,
      "Ġmar": 1536,
      "Ġproble": 1537,
      "Ġfunction": 1538,
      "Ġtell": 1539,
      "Ġcho": 1540,
      "apt": 1541,
      "ency": 1542,
      "Ġtem": 1543,
      "As": 1544,
      "Ġless": 1545,
      "Ġterm": 1546,
      "ethod": 1547,
      "Ġcommand": 1548,
      "Ġmarket": 1549,
      "by": 1550,
      "here": 1551,
      "hor": 1552,
      "of": 1553,
      "Ġindividual": 1554,
      "Ġair": 1555,
      "How": 1556,
      "ĠĠĠĠĠĠĠĠĠĠĠĠĠĠĠĠ": 1557,
      "Ġmight": 1558,
      "Ġocc": 1559,
      "Ġweek": 1560,
      "thing": 1561,
      "ization": 1562,
      "Ġleg": 1563,
      "Ġtype": 1564,
      "18": 1565,
      "ember": 1566,
      "Ġthings": 1567,
      "Ġcurrent": 1568,
      "Ġcity": 1569,
      "Ġstand": 1570,
      "be": 1571,
      "over": 1572,
      "Ġrequire": 1573,
      "ĠEx": 1574,
      "iron": 1575,
      "Ġbre": 1576,
      "iver": 1577,
      "Ġput": 1578,
      "Ġsure": 1579,
      "ĠPr": 1580,
      "ware": 1581,
      "Ġprot": 1582,
      "Ġuntil": 1583,
      "Ġknown": 1584,
      "oor": 1585,
      "itions": 1586,
      "por": 1587,
      "Ġlevel": 1588,
      "ills": 1589,
      "ĠCan": 1590,
      "Ġlater": 1591,
      "Ġgovern": 1592,
      "oci": 1593,
      "ãĤ": 1594,
      "oney": 1595,
      "Ġcap": 1596,
      "Ġavailable": 1597,
      "Ġmusic": 1598,
      "Ġlot": 1599,
      "ats": 1600,
      "Ex": 1601,
      "12": 1602,
      "Ġjob": 1603,
      "Ġsever": 1604,
      "enn": 1605,
      "mber": 1606,
      "Ġfilm": 1607,
      "ĠAll": 1608,
      "Ġ:": 1609,
      "Ġcode": 1610,
      "Ġcharact": 1611,
      "ended": 1612,
      "Ġlaw": 1613,
      "aces": 1614,
      "Ġnever": 1615,
      "ission": 1616,
      "ential": 1617,
      "ĠComm": 1618,
      "ĠJohn": 1619,
      "Ġaccess": 1620,
      "Ġline": 1621,
      "Ġchang": 1622,
      "ĠBr": 1623,
      "Ġconnect": 1624,
      "50": 1625,
      "ane": 1626,
      "ream": 1627,
      "ised": 1628,
      "Ġsuccess": 1629,
      "Ġaction": 1630,
      "uest": 1631,
      "'re": 1632,
      "Ġ@": 1633,
      "Ġseveral": 1634,
      "gy": 1635,
      "min": 1636,
      "Ġseason": 1637,
      "```": 1638,
      "Ġrele": 1639,
      "ems": 1640,
      "Ġaff": 1641,
      "uck": 1642,
      "illion": 1643,
      "Ġable": 1644,
      "Ġelect": 1645,
      "Ġopt": 1646,
      "Ġgive": 1647,
      "let": 1648,
      "ĠWhat": 1649,
      "ĠUniversity": 1650,
      "Ġenc": 1651,
      "Ġexperience": 1652,
      "rodu": 1653,
      "Ġcost": 1654,
      "ene": 1655,
      "Ġcalled": 1656,
      "Ġlight": 1657,
      "//": 1658,
      "Ġlim": 1659,
      "ternal": 1660,
      "icle": 1661,
      "Ġlocal": 1662,
      "anguage": 1663,
      "Ġinclude": 1664,
      "Ġve": 1665,
      "Ġ197": 1666,
      "ON": 1667,
      "ories": 1668,
      "Ġrepl": 1669,
      "Ġspe": 1670,
      "ĠStates": 1671,
      "à¸": 1672,
      "Ġbeh": 1673,
      "Ġview": 1674,
      "Ġlittle": 1675,
      "Ġwhether": 1676,
      "aced": 1677,
      "my": 1678,
      "Ġpay": 1679,
      "augh": 1680,
      "ĠHowever": 1681,
      "Ġ+": 1682,
      "LE": 1683,
      "Ġnear": 1684,
      "Ġinvest": 1685,
      "'m": 1686,
      "Ġaddition": 1687,
      "Ġtimes": 1688,
      "Ġ16": 1689,
      "ney": 1690,
      "Ġann": 1691,
      "med": 1692,
      "Ġdem": 1693,
      "Ġtext": 1694,
      "yle": 1695,
      "Ġgot": 1696,
      "inc": 1697,
      "What": 1698,
      "Âł": 1699,
      "Ġcase": 1700,
      "orld": 1701,
      "ulation": 1702,
      "ĠCar": 1703,
      "ours": 1704,
      "Ġgrow": 1705,
      "lished": 1706,
      "sh": 1707,
      "Ġactiv": 1708,
      "ending": 1709,
      "umn": 1710,
      "istr": 1711,
      "IN": 1712,
      "Ġtypes": 1713,
      "ush": 1714,
      "aster": 1715,
      "Ġhouse": 1716,
      "Ġalong": 1717,
      "ĠYour": 1718,
      "ales": 1719,
      "Ġlooking": 1720,
      "ently": 1721,
      "Ġmaking": 1722,
      "Ġfull": 1723,
      "ograph": 1724,
      "Ġpot": 1725,
      "yn": 1726,
      "Ġexam": 1727,
      "ĠAt": 1728,
      "Ġ17": 1729,
      "me": 1730,
      "Ġvers": 1731,
      "Ġmethod": 1732,
      "wards": 1733,
      "Ġsum": 1734,
      "ipp": 1735,
      "Ġimpro": 1736,
      "Ġexpect": 1737,
      "Ġfood": 1738,
      "ret": 1739,
      "ĠUS": 1740,
      "rap": 1741,
      "Ġcond": 1742,
      "Ġprofess": 1743,
      "ajor": 1744,
      "TUR": 1745,
      "ott": 1746,
      "ĠSo": 1747,
      "ued": 1748,
      "isc": 1749,
      "tain": 1750,
      "Ġservices": 1751,
      "une": 1752,
      "ĠWhen": 1753,
      "Ġmean": 1754,
      "fer": 1755,
      "atic": 1756,
      "ĠTe": 1757,
      "Ġconc": 1758,
      "ique": 1759,
      "arent": 1760,
      "Ġoffic": 1761,
      "ober": 1762,
      "Ġaway": 1763,
      "Ġhard": 1764,
      "Ġchildren": 1765,
      "Ġdays": 1766,
      "side": 1767,
      "ai": 1768,
      "Ġmen": 1769,
      "11": 1770,
      "Ġsw": 1771,
      ",\"": 1772,
      "Ġbig": 1773,
      "ĠĠčĊ": 1774,
      "arr": 1775,
      "Ġlarge": 1776,
      "ries": 1777,
      "ored": 1778,
      "Ġspecial": 1779,
      "Ġrese": 1780,
      "erc": 1781,
      "Ġapplic": 1782,
      "TURN": 1783,
      "ability": 1784,
      "ĠMan": 1785,
      "Ġoften": 1786,
      "Ġmeet": 1787,
      "resent": 1788,
      "aim": 1789,
      "inks": 1790,
      "viron": 1791,
      "Ġwebs": 1792,
      "Ġchange": 1793,
      "ples": 1794,
      "200": 1795,
      "ony": 1796,
      "Ġdev": 1797,
      "att": 1798,
      "Ġrelations": 1799,
      "iam": 1800,
      "utes": 1801,
      "Ġkey": 1802,
      "Ġroom": 1803,
      "ĠPersonX": 1804,
      "af": 1805,
      "ination": 1806,
      "ĠGo": 1807,
      "ĠAm": 1808,
      "ches": 1809,
      "not": 1810,
      "Ġworking": 1811,
      "ĠâĢĶ": 1812,
      "amed": 1813,
      "ĠMay": 1814,
      "Ġremain": 1815,
      "Ġtoget": 1816,
      "Ġtogether": 1817,
      "Ġpract": 1818,
      "30": 1819,
      "ps": 1820,
      "Ġanswers": 1821,
      "ows": 1822,
      "ĠX": 1823,
      "An": 1824,
      "Ġident": 1825,
      "Ġhaving": 1826,
      "Ġnon": 1827,
      "ances": 1828,
      "Ġet": 1829,
      "Ġmil": 1830,
      "istant": 1831,
      "Ġpain": 1832,
      "Ġmultip": 1833,
      "ients": 1834,
      "Ġbody": 1835,
      "ternational": 1836,
      "raft": 1837,
      "ãĢĤ": 1838,
      "Ġreview": 1839,
      "Ġworks": 1840,
      "ĠCent": 1841,
      "urs": 1842,
      "Ġfoot": 1843,
      "Ġ11": 1844,
      "ĠChrist": 1845,
      "ians": 1846,
      "raw": 1847,
      "str": 1848,
      "ured": 1849,
      "ively": 1850,
      "ä»": 1851,
      "aken": 1852,
      "Ġseries": 1853,
      "Ġmove": 1854,
      "ĠAfter": 1855,
      "Ġstudents": 1856,
      "Ġ14": 1857,
      "Ġmakes": 1858,
      "ole": 1859,
      "Ġmembers": 1860,
      "ĠFl": 1861,
      "Ġlanguage": 1862,
      "ister": 1863,
      "ged": 1864,
      "Ġkind": 1865,
      "load": 1866,
      "Ġvide": 1867,
      "Ġfive": 1868,
      "Ġ196": 1869,
      "Ġcomb": 1870,
      "ĠCount": 1871,
      "iting": 1872,
      "Ġens": 1873,
      "Ġnight": 1874,
      "ides": 1875,
      "ĠThese": 1876,
      "ĠRes": 1877,
      "Ġtrad": 1878,
      "Ġexec": 1879,
      "Ġcountry": 1880,
      "bum": 1881,
      "Ch": 1882,
      "If": 1883,
      "...": 1884,
      "Ġfore": 1885,
      "mit": 1886,
      "Ġphot": 1887,
      "ript": 1888,
      "Ġonline": 1889,
      "Ġappear": 1890,
      "Ġ30": 1891,
      "Ġcontrol": 1892,
      "Ġ||": 1893,
      "ortun": 1894,
      "Ġside": 1895,
      "AT": 1896,
      "ither": 1897,
      "ilt": 1898,
      "Ġinput": 1899,
      "Ġcolle": 1900,
      "ocus": 1901,
      "yl": 1902,
      "vironment": 1903,
      "Ã³": 1904,
      "ape": 1905,
      "Ġindust": 1906,
      "Ġdeterm": 1907,
      "Ġdetail": 1908,
      "iddle": 1909,
      "Ġdescrib": 1910,
      "Ġlearn": 1911,
      "ording": 1912,
      "alf": 1913,
      "Ġsong": 1914,
      "osed": 1915,
      "ilar": 1916,
      "acy": 1917,
      "Ġarg": 1918,
      "aterial": 1919,
      "Ġz": 1920,
      "Ġ#": 1921,
      "></": 1922,
      "Ġearly": 1923,
      "Ġcontext": 1924,
      "Ġ)": 1925,
      "15": 1926,
      "eb": 1927,
      "ising": 1928,
      "Ġevents": 1929,
      "conom": 1930,
      "Ġmoney": 1931,
      "ST": 1932,
      "lement": 1933,
      "Ġsite": 1934,
      "atural": 1935,
      "ĠHead": 1936,
      "roll": 1937,
      "Ġcheck": 1938,
      "Ġprevious": 1939,
      "ĠAust": 1940,
      "iod": 1941,
      "ung": 1942,
      "Ġothers": 1943,
      "Ġemploy": 1944,
      "Ġfile": 1945,
      "><": 1946,
      "ource": 1947,
      "Ġbecome": 1948,
      "Ġmeans": 1949,
      "Ġgovernment": 1950,
      "ĠWorld": 1951,
      "Ġbuilding": 1952,
      "urther": 1953,
      "ĠYork": 1954,
      "ĠNo": 1955,
      "irl": 1956,
      "Ġexc": 1957,
      "verage": 1958,
      "ably": 1959,
      "room": 1960,
      "Ġrelationship": 1961,
      "Ġmajor": 1962,
      "Ġbas": 1963,
      "Ġtable": 1964,
      "Ġpast": 1965,
      "mp": 1966,
      "Ġcertain": 1967,
      "osp": 1968,
      "Ġdeath": 1969,
      "ĠWith": 1970,
      "Ġ13": 1971,
      "illed": 1972,
      "ean": 1973,
      "Ġcamp": 1974,
      "Ġsingle": 1975,
      "urop": 1976,
      "Ġoutput": 1977,
      "ĠWest": 1978,
      "ster": 1979,
      "uly": 1980,
      "Ġsocial": 1981,
      "Ġtook": 1982,
      "ones": 1983,
      "âĢľ": 1984,
      "Ġmodel": 1985,
      "Ġeduc": 1986,
      "joy": 1987,
      "Ġuser": 1988,
      "17": 1989,
      "Ġhistory": 1990,
      "Ġben": 1991,
      "umb": 1992,
      "back": 1993,
      ".âĢĿ": 1994,
      "atures": 1995,
      "ison": 1996,
      ".</": 1997,
      "Ġchall": 1998,
      "Ġestab": 1999,
      "Ġneeds": 2000,
      "ground": 2001,
      "Ġpa": 2002,
      "Ġbegin": 2003,
      "ĠAss": 2004,
      "Ã¡": 2005,
      "Ð»": 2006,
      "ague": 2007,
      "aly": 2008,
      "ike": 2009,
      "Ġparticip": 2010,
      "ival": 2011,
      "Ġplayers": 2012,
      "Ġcommunity": 2013,
      "for": 2014,
      "rom": 2015,
      "16": 2016,
      "ĠSy": 2017,
      ",âĢĿ": 2018,
      "Ġyoung": 2019,
      "aff": 2020,
      "Ġnet": 2021,
      "play": 2022,
      "Ġ*": 2023,
      "Ġcommon": 2024,
      "Ġwebsite": 2025,
      "Ġpolit": 2026,
      "val": 2027,
      "ĠBro": 2028,
      "ĠWar": 2029,
      "To": 2030,
      "ĠĠĠĠĠ": 2031,
      "urch": 2032,
      "Ġbecame": 2033,
      "Ġsepar": 2034,
      "Ġfac": 2035,
      "Ġsubject": 2036,
      "vent": 2037,
      "ĠSchool": 2038,
      "aring": 2039,
      "Ġpersonal": 2040,
      "Ġcompet": 2041,
      "Ġbeaut": 2042,
      "ĠCo": 2043,
      "Ġresearch": 2044,
      "fect": 2045,
      "Ġtoday": 2046,
      "RI": 2047,
      "ĠBrit": 2048,
      "Ġhuman": 2049,
      "ruction": 2050,
      "Ġalbum": 2051,
      "Ġtot": 2052,
      "Ġdevelopment": 2053,
      "though": 2054,
      "ĠDr": 2055,
      "äº": 2056,
      "ids": 2057,
      "Ġfar": 2058,
      "://": 2059,
      "onse": 2060,
      "Ġdue": 2061,
      "Ġlik": 2062,
      "rew": 2063,
      "Ġsaf": 2064,
      "Ġport": 2065,
      "Ġselect": 2066,
      "yard": 2067,
      "Ġrespect": 2068,
      "Ġcult": 2069,
      "No": 2070,
      "Ġfre": 2071,
      "ots": 2072,
      "ources": 2073,
      "On": 2074,
      "Ġred": 2075,
      "Ġhold": 2076,
      "åı": 2077,
      "Ġacross": 2078,
      "ights": 2079,
      "Ġprotect": 2080,
      "ĠSouth": 2081,
      "Ġfocus": 2082,
      "Ġtown": 2083,
      "ĠEd": 2084,
      "Ġmultiple": 2085,
      "go": 2086,
      "Ġcal": 2087,
      "Ġhig": 2088,
      "14": 2089,
      "Ġproducts": 2090,
      "ĠMus": 2091,
      "Ġaccount": 2092,
      "Ġmaterial": 2093,
      "ĠMy": 2094,
      "Ġredu": 2095,
      "reet": 2096,
      "Ġpriv": 2097,
      "ey": 2098,
      "Ġwhy": 2099,
      "Ġthing": 2100,
      "Ġcontent": 2101,
      "ffic": 2102,
      "ĠNational": 2103,
      "ĠRep": 2104,
      "Ġmess": 2105,
      "Ġtreat": 2106,
      "Ġcharacter": 2107,
      "ox": 2108,
      "ĠCity": 2109,
      "Ġpage": 2110,
      "ched": 2111,
      "ibr": 2112,
      "urity": 2113,
      "Ġpub": 2114,
      "che": 2115,
      "ĠThat": 2116,
      "Ġoffer": 2117,
      "'.": 2118,
      "ĠDo": 2119,
      "References": 2120,
      "part": 2121,
      "Ġparticular": 2122,
      "lev": 2123,
      "Ġquality": 2124,
      "Ġjo": 2125,
      "Wh": 2126,
      "ament": 2127,
      "Ġoriginal": 2128,
      "ada": 2129,
      "rem": 2130,
      "Ġtravel": 2131,
      "Ġnumbers": 2132,
      "ouch": 2133,
      "Ġstop": 2134,
      "itle": 2135,
      "Ġgoal": 2136,
      "Ġinte": 2137,
      "ges": 2138,
      "aps": 2139,
      "Ġrange": 2140,
      "ĠCal": 2141,
      "13": 2142,
      "Ġmiss": 2143,
      "rain": 2144,
      "ĠEn": 2145,
      "Ġcomplex": 2146,
      "ãĥ": 2147,
      "Ġenvironment": 2148,
      "Ġill": 2149,
      "Ġsimple": 2150,
      "ĠJan": 2151,
      "ww": 2152,
      "Ġlive": 2153,
      "Ġcourse": 2154,
      "Ġrecomm": 2155,
      "ĠEurop": 2156,
      "Ass": 2157,
      "ÃŃ": 2158,
      "ze": 2159,
      "Ġlog": 2160,
      "Ġthird": 2161,
      "Ġlow": 2162,
      "Ġtrue": 2163,
      "itor": 2164,
      "Ġcame": 2165,
      "Ġx": 2166,
      "âĢĶ": 2167,
      "eter": 2168,
      "uestion": 2169,
      "Ġtaken": 2170,
      "Ġwomen": 2171,
      "Ġperiod": 2172,
      "Ġprovided": 2173,
      "Ġwent": 2174,
      "ires": 2175,
      "Ġwind": 2176,
      "ĠGu": 2177,
      "Ġbuy": 2178,
      "Ġsugg": 2179,
      "Ġlo": 2180,
      "Ġsuggest": 2181,
      "ledge": 2182,
      "uture": 2183,
      "Ġproblem": 2184,
      "ino": 2185,
      "Ġleast": 2186,
      "Ġfinal": 2187,
      "ready": 2188,
      "orts": 2189,
      "de": 2190,
      "cle": 2191,
      "ule": 2192,
      "pro": 2193,
      "ĠNorth": 2194,
      "Ġmillion": 2195,
      "Ġland": 2196,
      "ift": 2197,
      "ĠGe": 2198,
      "arter": 2199,
      "Ġauthor": 2200,
      "Ġsound": 2201,
      "Ġsoft": 2202,
      "ĠâĢĺ": 2203,
      "Ġtalk": 2204,
      "ĠBar": 2205,
      "duct": 2206,
      "Ġenjoy": 2207,
      "Ġreasoning": 2208,
      "text": 2209,
      "error": 2210,
      "chie": 2211,
      "aur": 2212,
      "Ġvarious": 2213,
      "Ġlab": 2214,
      "Ġrepresent": 2215,
      "Ġ100": 2216,
      "ried": 2217,
      "Ġphys": 2218,
      "Ġself": 2219,
      "Ġrespons": 2220,
      "amm": 2221,
      "Ñĥ": 2222,
      "aged": 2223,
      "Ġdoc": 2224,
      "Ġtrack": 2225,
      "ama": 2226,
      "uff": 2227,
      "Ġë": 2228,
      "ille": 2229,
      "ĠTail": 2230,
      "ĠOne": 2231,
      "He": 2232,
      "Ġclaim": 2233,
      "AR": 2234,
      "ription": 2235,
      "(\"": 2236,
      "ourn": 2237,
      "ĠPar": 2238,
      "Ġgames": 2239,
      "irth": 2240,
      "ler": 2241,
      "Ġonce": 2242,
      "Ġnatural": 2243,
      "reg": 2244,
      "Ġcaus": 2245,
      "ĠGerm": 2246,
      "Ġstarted": 2247,
      "Ġque": 2248,
      "Ġeconom": 2249,
      "ĠAct": 2250,
      "amb": 2251,
      "Ġvol": 2252,
      "Ġgetting": 2253,
      "ĠWill": 2254,
      "Ġmag": 2255,
      "Ġreading": 2256,
      "Ġwalk": 2257,
      "Ġdone": 2258,
      "Ġvideo": 2259,
      "Ġsays": 2260,
      "Ġwrite": 2261,
      "elt": 2262,
      "Ġ25": 2263,
      "Ġlinks": 2264,
      "ogn": 2265,
      "Ġwar": 2266,
      "ìĿ": 2267,
      "Ġbreak": 2268,
      "Ġclear": 2269,
      "Ġelse": 2270,
      "Ġnames": 2271,
      "Ġener": 2272,
      "Ġstudy": 2273,
      "Ġmot": 2274,
      "ilities": 2275,
      "'ve": 2276,
      "Ġey": 2277,
      "Ġeither": 2278,
      "Ġfav": 2279,
      "Ġactions": 2280,
      "ĠInst": 2281,
      "Ġinit": 2282,
      "Ġcrit": 2283,
      "Ġdiff": 2284,
      "Ġresults": 2285,
      "Yes": 2286,
      "Ġdeb": 2287,
      "lex": 2288,
      "Ġattack": 2289,
      "Ġever": 2290,
      "Ġstore": 2291,
      "Ġbenef": 2292,
      "Ġanim": 2293,
      "Ġenough": 2294,
      "Ġdoing": 2295,
      "Ġvariety": 2296,
      "Ġformer": 2297,
      "Ġsimilar": 2298,
      "For": 2299,
      "oon": 2300,
      "ength": 2301,
      "ĠApp": 2302,
      "icult": 2303,
      "agraph": 2304,
      "Ġalready": 2305,
      "Ġstrong": 2306,
      "Ġquick": 2307,
      "':": 2308,
      "utions": 2309,
      "ĠChe": 2310,
      "ĠEnglish": 2311,
      "ĠMed": 2312,
      "cer": 2313,
      "Ġrequest": 2314,
      "Ġposition": 2315,
      "Ġsuper": 2316,
      "AL": 2317,
      "Ġfriends": 2318,
      "ser": 2319,
      "set": 2320,
      "Ġcreating": 2321,
      "Ġmind": 2322,
      "\\_": 2323,
      "Ġbegan": 2324,
      "ĠState": 2325,
      "Ġ194": 2326,
      "Ġfund": 2327,
      "oud": 2328,
      "most": 2329,
      "lu": 2330,
      "Ġeasy": 2331,
      "Ġsignific": 2332,
      "Ġsix": 2333,
      "hern": 2334,
      "ĠEl": 2335,
      "ĠHis": 2336,
      "Ðº": 2337,
      "time": 2338,
      "ĠMin": 2339,
      "Cl": 2340,
      "ĠDes": 2341,
      "Ġvalues": 2342,
      "And": 2343,
      "ĠMc": 2344,
      "na": 2345,
      "25": 2346,
      "Con": 2347,
      "empt": 2348,
      "Ġheart": 2349,
      "Ġseen": 2350,
      "gest": 2351,
      "dd": 2352,
      "'ll": 2353,
      "Ġtool": 2354,
      "Ġcomes": 2355,
      "Ġdoesn": 2356,
      "eral": 2357,
      "Ġabove": 2358,
      "Ġdeal": 2359,
      "Ġtw": 2360,
      "Ġupd": 2361,
      "Ġhot": 2362,
      "fact": 2363,
      "):": 2364,
      "Ġant": 2365,
      "Ġamong": 2366,
      "But": 2367,
      "Ġaddress": 2368,
      "sel": 2369,
      "Ġste": 2370,
      "Ġmom": 2371,
      "Ġsearch": 2372,
      "idence": 2373,
      "Ġexamples": 2374,
      "Ġabs": 2375,
      "Ġ24": 2376,
      "Pro": 2377,
      "Ġfriend": 2378,
      "Ġcolumn": 2379,
      "Ġhappen": 2380,
      "anies": 2381,
      "anks": 2382,
      "ĠCounty": 2383,
      "upp": 2384,
      "ips": 2385,
      "Ġstatement": 2386,
      "ĠAb": 2387,
      "||": 2388,
      "Ġris": 2389,
      "ĠPol": 2390,
      "Ġfurther": 2391,
      "Human": 2392,
      "vert": 2393,
      "Ġstruct": 2394,
      "Ġstyle": 2395,
      "Ġexpress": 2396,
      "Ġfuture": 2397,
      "ĠAustral": 2398,
      "ĠGod": 2399,
      "Ġvisit": 2400,
      "Ġstat": 2401,
      "Ġspace": 2402,
      "ĠAf": 2403,
      "tr": 2404,
      "Ġwa": 2405,
      "Ġplayed": 2406,
      "swer": 2407,
      "uary": 2408,
      "Ġtotal": 2409,
      "Ġperformance": 2410,
      "Ġthought": 2411,
      "Ġpie": 2412,
      "co": 2413,
      "attle": 2414,
      "ĠKing": 2415,
      "EN": 2416,
      ";/": 2417,
      "Ġfeatures": 2418,
      "Ġcomput": 2419,
      "ables": 2420,
      "Ġversion": 2421,
      "now": 2422,
      "Ġrole": 2423,
      "Assistant": 2424,
      "Ġassoci": 2425,
      "pec": 2426,
      "Ġpri": 2427,
      "ners": 2428,
      "Ġsize": 2429,
      "oph": 2430,
      "ains": 2431,
      "Ġbar": 2432,
      "22": 2433,
      "Ġopportun": 2434,
      "uation": 2435,
      "Ġhours": 2436,
      "ese": 2437,
      "Ġexist": 2438,
      "Ġactually": 2439,
      "Ġpack": 2440,
      "Ġphrases": 2441,
      "asing": 2442,
      "Ġpress": 2443,
      "Ġbit": 2444,
      "Ġ//": 2445,
      "Ġinstead": 2446,
      "wh": 2447,
      "ĠCont": 2448,
      "arget": 2449,
      "Ġincrease": 2450,
      "pril": 2451,
      "Ġcontact": 2452,
      "ä½": 2453,
      "ĠĠĠĠĠĠĠĠĠĠĠĠĠĠĠ": 2454,
      "ele": 2455,
      "Ġcut": 2456,
      "idge": 2457,
      "Ġfall": 2458,
      "Ġarticle": 2459,
      "omes": 2460,
      "Ġreleased": 2461,
      "ming": 2462,
      "Ġlocated": 2463,
      "Ġhalf": 2464,
      "ctor": 2465,
      "æľ": 2466,
      "Ġbelow": 2467,
      "Ġelement": 2468,
      "Ġcell": 2469,
      "Ġknowledge": 2470,
      "Ġaud": 2471,
      "Ġcomplete": 2472,
      "ana": 2473,
      "Ġconsider": 2474,
      "aving": 2475,
      "ensive": 2476,
      "uk": 2477,
      "Ġfail": 2478,
      "istic": 2479,
      "ume": 2480,
      "There": 2481,
      "Ġinstall": 2482,
      "Ġenergy": 2483,
      "ustr": 2484,
      "Ġimprove": 2485,
      "Ġoperations": 2486,
      "Ġachie": 2487,
      "Ġdate": 2488,
      "Ġdidn": 2489,
      "Ġcomplet": 2490,
      "era": 2491,
      "down": 2492,
      "Ġincludes": 2493,
      "ators": 2494,
      "mb": 2495,
      "Ġparagraph": 2496,
      "Ġshown": 2497,
      "Ġgeneral": 2498,
      "ĠAug": 2499,
      "ĠÂ": 2500,
      "head": 2501,
      "21": 2502,
      "Ġneg": 2503,
      "Ġamount": 2504,
      "Ġsense": 2505,
      "Ġpopular": 2506,
      "Ġbring": 2507,
      "Ġmember": 2508,
      "Ġhost": 2509,
      "hers": 2510,
      "Ġprice": 2511,
      "ification": 2512,
      "ĠOct": 2513,
      "Ġwriting": 2514,
      "Ġbirth": 2515,
      "Ġmonths": 2516,
      "rict": 2517,
      "Ġess": 2518,
      "Ġstay": 2519,
      "face": 2520,
      "--------": 2521,
      "Ġnamed": 2522,
      "Ġheld": 2523,
      "Ġmention": 2524,
      "Ġclos": 2525,
      "Ġshare": 2526,
      "ĠChar": 2527,
      "ios": 2528,
      "Ġsomeone": 2529,
      "Ġdiscuss": 2530,
      "ication": 2531,
      "Ġperfect": 2532,
      "Ġage": 2533,
      "ided": 2534,
      "Ġcareer": 2535,
      "ĠHigh": 2536,
      "Ġoptions": 2537,
      "ara": 2538,
      "ype": 2539,
      "Ġindustry": 2540,
      "âĢ¦": 2541,
      "Ġunique": 2542,
      "Ġrad": 2543,
      "key": 2544,
      "Ġprint": 2545,
      "ops": 2546,
      "Ġdi": 2547,
      "Ġmatch": 2548,
      "ptember": 2549,
      "Ġissue": 2550,
      "HT": 2551,
      "Ġtakes": 2552,
      "Ġissues": 2553,
      "ĠSec": 2554,
      "alt": 2555,
      "Ñı": 2556,
      "imate": 2557,
      "Ġbuilt": 2558,
      "icy": 2559,
      "ibility": 2560,
      "Ġdirectly": 2561,
      "Ġfront": 2562,
      "ĠMarch": 2563,
      "Ġproperty": 2564,
      "íķ": 2565,
      "Ġareas": 2566,
      "irection": 2567,
      "Ġtouch": 2568,
      "ĠPart": 2569,
      "Ġparent": 2570,
      "add": 2571,
      "FT": 2572,
      "uous": 2573,
      "Ġweb": 2574,
      "Ġcreated": 2575,
      "Ġtaking": 2576,
      "bor": 2577,
      "Ġpotential": 2578,
      "Ġtrying": 2579,
      "Ġblack": 2580,
      "Ġface": 2581,
      "irt": 2582,
      "iful": 2583,
      "unch": 2584,
      "ava": 2585,
      "Al": 2586,
      "Ġoffice": 2587,
      "Ġensure": 2588,
      "ades": 2589,
      "Ġpurch": 2590,
      "Ġreceived": 2591,
      "Ġminutes": 2592,
      "**": 2593,
      "iation": 2594,
      "Ġchalleng": 2595,
      "23": 2596,
      "Ġfootball": 2597,
      "Ġpoints": 2598,
      "ĠSw": 2599,
      "ĠSte": 2600,
      "Ġmeas": 2601,
      "Ġprob": 2602,
      "åħ": 2603,
      "Ġcompanies": 2604,
      "!!": 2605,
      "olution": 2606,
      "ĠBy": 2607,
      "Ġ50": 2608,
      "OR": 2609,
      "Ġtraining": 2610,
      "Question": 2611,
      "Ġpo": 2612,
      "Ġdest": 2613,
      "gress": 2614,
      "AN": 2615,
      "OM": 2616,
      "Ġclean": 2617,
      "Ġnews": 2618,
      "Ġdifficult": 2619,
      "Ġinsp": 2620,
      "ĠNe": 2621,
      "Ġdig": 2622,
      "Ġmedia": 2623,
      "fully": 2624,
      "ĠDav": 2625,
      "Ġsignificant": 2626,
      "ĠApril": 2627,
      "Ġyet": 2628,
      "Ġprovides": 2629,
      "Ġengine": 2630,
      "apan": 2631,
      "ĠJune": 2632,
      "##": 2633,
      "Ġrow": 2634,
      "Ġpopulation": 2635,
      "overed": 2636,
      "Ġprofessional": 2637,
      "cul": 2638,
      "Ġexpected": 2639,
      "Ġstrateg": 2640,
      "ĠHere": 2641,
      "uit": 2642,
      "epend": 2643,
      "book": 2644,
      "Ġreturns": 2645,
      "Ġidea": 2646,
      "ĠGl": 2647,
      "Ġfire": 2648,
      "Ñĭ": 2649,
      "ĠBo": 2650,
      "Ġimpact": 2651,
      "ĠComp": 2652,
      "Ġtechnology": 2653,
      "Ġadded": 2654,
      "ĠBritish": 2655,
      "ien": 2656,
      "Ġson": 2657,
      "Ġgirl": 2658,
      "Ġtax": 2659,
      "dom": 2660,
      "Ġmor": 2661,
      "Ġrunning": 2662,
      "ĠReg": 2663,
      "aves": 2664,
      "Ġplease": 2665,
      "åĪ": 2666,
      "Ġcolor": 2667,
      "Ġimage": 2668,
      "ached": 2669,
      "Ġwhole": 2670,
      "ĠServ": 2671,
      "rench": 2672,
      "çĶ": 2673,
      "Ġcop": 2674,
      "ĠPark": 2675,
      "Ġpick": 2676,
      "Ġnecess": 2677,
      "Ġcred": 2678,
      "ĠMe": 2679,
      "ĠHar": 2680,
      "hing": 2681,
      "Ġpercent": 2682,
      "Ġattempt": 2683,
      "artment": 2684,
      "Ġ--": 2685,
      "Ġaverage": 2686,
      "itional": 2687,
      "Ġroad": 2688,
      "itary": 2689,
      "aul": 2690,
      "ĠEm": 2691,
      "Ġrequired": 2692,
      "Ġcir": 2693,
      "199": 2694,
      "Ġintrodu": 2695,
      "Ġwritten": 2696,
      "Ġcateg": 2697,
      "Ġchanges": 2698,
      "Ġemail": 2699,
      "Ġcannot": 2700,
      "Ġhowever": 2701,
      "Ġnational": 2702,
      "ham": 2703,
      "Ġband": 2704,
      "ĠAugust": 2705,
      "Ġliving": 2706,
      "iction": 2707,
      "bl": 2708,
      "ĠPer": 2709,
      "oice": 2710,
      "Ġresponse": 2711,
      "ancial": 2712,
      "Ġep": 2713,
      "Ġcoll": 2714,
      "ging": 2715,
      "ĠGener": 2716,
      "ault": 2717,
      "Ġquarter": 2718,
      "Ġdirection": 2719,
      "older": 2720,
      "ĠPres": 2721,
      "Ġfeature": 2722,
      "My": 2723,
      "Ð¼": 2724,
      "Ġextra": 2725,
      "Ġ195": 2726,
      "Ġball": 2727,
      "Ġclub": 2728,
      "omp": 2729,
      "itch": 2730,
      "ĠSeptember": 2731,
      "Ġoption": 2732,
      "Ġphrase": 2733,
      "ief": 2734,
      "ica": 2735,
      "ply": 2736,
      "Ġclose": 2737,
      "Ġmach": 2738,
      "iment": 2739,
      "When": 2740,
      "Ġcapt": 2741,
      "Ġentire": 2742,
      "Ġparty": 2743,
      "Ġseem": 2744,
      "Ġprim": 2745,
      "Ġden": 2746,
      "aching": 2747,
      "Ġscope": 2748,
      "ĠRec": 2749,
      "ĠJuly": 2750,
      "cember": 2751,
      "Ġbehind": 2752,
      "arning": 2753,
      "ĠII": 2754,
      "quot": 2755,
      "Ġupon": 2756,
      "ovember": 2757,
      "Ġtre": 2758,
      "Ġsat": 2759,
      "24": 2760,
      "Ġskills": 2761,
      "Ġlink": 2762,
      "roid": 2763,
      "Ġtold": 2764,
      "ĠÃ": 2765,
      "name": 2766,
      "iol": 2767,
      "Ġincluded": 2768,
      "org": 2769,
      "adem": 2770,
      "ouble": 2771,
      "rug": 2772,
      "fl": 2773,
      "Tr": 2774,
      "Ġunderstanding": 2775,
      "Ġdam": 2776,
      "ites": 2777,
      "Ġmiddle": 2778,
      "ĠJanuary": 2779,
      "ises": 2780,
      "å®": 2781,
      "-@": 2782,
      "Ġbed": 2783,
      "ãĢģ": 2784,
      "ĠSm": 2785,
      "Ġ@-@": 2786,
      "ĠOctober": 2787,
      "ception": 2788,
      "cing": 2789,
      "Ġanything": 2790,
      "Ġrecogn": 2791,
      "right": 2792,
      "Ġextract": 2793,
      "Ġprivate": 2794,
      "uted": 2795,
      "ES": 2796,
      "Ġgen": 2797,
      "ĠCor": 2798,
      "Ð²": 2799,
      "Ġetc": 2800,
      "Ġnetwork": 2801,
      "ords": 2802,
      "External": 2803,
      "ondon": 2804,
      "lin": 2805,
      "use": 2806,
      "htt": 2807,
      "Ġhimself": 2808,
      "ĠSome": 2809,
      "Ġsteps": 2810,
      "Ġoutside": 2811,
      "ma": 2812,
      "oved": 2813,
      "sec": 2814,
      "Ġwhite": 2815,
      "ÑĮ": 2816,
      "Ġlat": 2817,
      "Ġmanagement": 2818,
      "ĠColle": 2819,
      "rest": 2820,
      "Ġplayer": 2821,
      "Ġoffers": 2822,
      "Ġaccept": 2823,
      "Ġfather": 2824,
      "Ġinside": 2825,
      "Ġcommit": 2826,
      "Ġdesigned": 2827,
      "Ġut": 2828,
      "Ġlocation": 2829,
      "eople": 2830,
      "Ġhope": 2831,
      "Ġsell": 2832,
      "iff": 2833,
      "Ġlay": 2834,
      "etic": 2835,
      "Ġsystems": 2836,
      "Ġarch": 2837,
      "Ġrelated": 2838,
      "Ġ?": 2839,
      "Ġled": 2840,
      "AS": 2841,
      "GHT": 2842,
      "Ġground": 2843,
      "clus": 2844,
      "Ġapplication": 2845,
      "Ġespec": 2846,
      "ĠMr": 2847,
      "urg": 2848,
      "cast": 2849,
      "==": 2850,
      "Ġneeded": 2851,
      "ivity": 2852,
      "ĠAmerica": 2853,
      "ym": 2854,
      "Ġpict": 2855,
      "ography": 2856,
      "Ġmoved": 2857,
      "Ġdiv": 2858,
      "umber": 2859,
      "ender": 2860,
      "();": 2861,
      "ampions": 2862,
      "Ġwoman": 2863,
      "Ġlate": 2864,
      "iate": 2865,
      "ĠQu": 2866,
      "ington": 2867,
      "Ġcollect": 2868,
      "æĪ": 2869,
      "ĠRuss": 2870,
      "ĠAfric": 2871,
      "ude": 2872,
      "Ġincor": 2873,
      "Ġproduction": 2874,
      "Ġeverything": 2875,
      "Ġren": 2876,
      "Ġtarget": 2877,
      "uel": 2878,
      "selves": 2879,
      "fort": 2880,
      "Ġvari": 2881,
      "uments": 2882,
      "Ġdog": 2883,
      "Ġlikely": 2884,
      "come": 2885,
      "ĠJack": 2886,
      "oe": 2887,
      "ees": 2888,
      "icles": 2889,
      "('": 2890,
      "off": 2891,
      "Ġleave": 2892,
      "Ġcook": 2893,
      "Ġannoun": 2894,
      "izing": 2895,
      "Ã³n": 2896,
      "ĠAdd": 2897,
      "Ġcoun": 2898,
      "Ġsoon": 2899,
      "ules": 2900,
      "Ġlost": 2901,
      "ĠLa": 2902,
      "Ġlearning": 2903,
      "reate": 2904,
      "Ġcover": 2905,
      "sep": 2906,
      "Ġ40": 2907,
      "ĠAng": 2908,
      "action": 2909,
      "year": 2910,
      "Ġimplement": 2911,
      "Ġdom": 2912,
      "icro": 2913,
      "åĴ": 2914,
      "ĠClass": 2915,
      "Ġsold": 2916,
      "inally": 2917,
      "oman": 2918,
      "ĠJapan": 2919,
      "Ġtitle": 2920,
      "Ġofficial": 2921,
      "Ġloss": 2922,
      "ĠDep": 2923,
      "ĠHer": 2924,
      "Ġpred": 2925,
      "ĠPlease": 2926,
      "ald": 2927,
      "Ġshows": 2928,
      "Ġspeak": 2929,
      "Ġfavor": 2930,
      "Ġmother": 2931,
      "Un": 2932,
      "60": 2933,
      "Ġeducation": 2934,
      "80": 2935,
      "Ġbelieve": 2936,
      "cil": 2937,
      "Ġcard": 2938,
      "ibly": 2939,
      "ĠDecember": 2940,
      "ĠAir": 2941,
      "Ġchoose": 2942,
      "Ġbase": 2943,
      "Ġrate": 2944,
      "Ġcontains": 2945,
      "Ġcontract": 2946,
      "Ġasked": 2947,
      "Ġfig": 2948,
      "ider": 2949,
      "Ġcontrib": 2950,
      "atform": 2951,
      "unt": 2952,
      "ministr": 2953,
      "Ġvill": 2954,
      "Ġcentury": 2955,
      "åľ": 2956,
      "alse": 2957,
      "ky": 2958,
      "Ġsqu": 2959,
      "ĠNovember": 2960,
      "ĠFeb": 2961,
      "åĴĮ": 2962,
      "ĠSun": 2963,
      "Ġdetermine": 2964,
      "Ġaccording": 2965,
      "Ġusually": 2966,
      "Ġ2006": 2967,
      "sy": 2968,
      "Ġstation": 2969,
      "ams": 2970,
      "ux": 2971,
      "Ġbeautiful": 2972,
      "Ġindic": 2973,
      "Ġregular": 2974,
      "ache": 2975,
      "ĠHouse": 2976,
      "Ġways": 2977,
      "Ġuses": 2978,
      "Ġelements": 2979,
      "Ġlength": 2980,
      "Ġbox": 2981,
      "ĠSoc": 2982,
      "anced": 2983,
      "alys": 2984,
      "Ġencour": 2985,
      "Ġespecially": 2986,
      "Ġalmost": 2987,
      "Ġwatch": 2988,
      "Ġaffect": 2989,
      "Ġfit": 2990,
      "ĠLondon": 2991,
      "Ġsecurity": 2992,
      "LEFT": 2993,
      "Ġbackground": 2994,
      "resh": 2995,
      "Ġcustomers": 2996,
      "ĠAv": 2997,
      "ida": 2998,
      "Ġconsidered": 2999,
      "ĠDon": 3000,
      "Ġsentences": 3001,
      "Ġoccur": 3002,
      "RIGHT": 3003,
      "aging": 3004,
      "irm": 3005,
      "AC": 3006,
      "where": 3007,
      "ained": 3008,
      "Ġ21": 3009,
      "Ġ2012": 3010,
      "pose": 3011,
      "Ġ2010": 3012,
      "Ġsequ": 3013,
      "abor": 3014,
      "ĠSer": 3015,
      "Ġinflu": 3016,
      "Ġdat": 3017,
      "Ġrather": 3018,
      "ession": 3019,
      "Ar": 3020,
      "Ġment": 3021,
      "Ġwall": 3022,
      "eed": 3023,
      "ĠOur": 3024,
      "\":": 3025,
      "obal": 3026,
      "Ġmovie": 3027,
      "Ġround": 3028,
      "ceed": 3029,
      "ĠMich": 3030,
      "æĸ": 3031,
      "Ġhit": 3032,
      "ruary": 3033,
      "Ġrout": 3034,
      "ĠIm": 3035,
      "Ġbooks": 3036,
      "Ġ2018": 3037,
      "ĠSan": 3038,
      "Ġadditional": 3039,
      "orge": 3040,
      "Ġcoup": 3041,
      "Ġagre": 3042,
      "iday": 3043,
      "ogle": 3044,
      "Ġshop": 3045,
      "ties": 3046,
      "40": 3047,
      "avy": 3048,
      "Ġthroughout": 3049,
      "Ġgroups": 3050,
      "Ġlower": 3051,
      "ternet": 3052,
      "Ġwanted": 3053,
      "ĠVal": 3054,
      "etimes": 3055,
      "oring": 3056,
      "Ġparts": 3057,
      "åĲ": 3058,
      "levision": 3059,
      "cy": 3060,
      "Ġfight": 3061,
      "Ġdisplay": 3062,
      "Ġsaw": 3063,
      "Ġhor": 3064,
      "ray": 3065,
      "With": 3066,
      "ĠMon": 3067,
      "Ġgenerate": 3068,
      "Ġhigher": 3069,
      "Ġapproach": 3070,
      "Ġterms": 3071,
      "Ġ2011": 3072,
      "Ġcontinue": 3073,
      "ufact": 3074,
      "Ġstaff": 3075,
      "sequ": 3076,
      "Ġphone": 3077,
      "Ġusers": 3078,
      "imum": 3079,
      "ford": 3080,
      "Ġsoftware": 3081,
      "Ġdocument": 3082,
      "So": 3083,
      "Ġconsist": 3084,
      "Ġillustr": 3085,
      "Ġord": 3086,
      "board": 3087,
      "ĠWilliam": 3088,
      "Ġver": 3089,
      "yth": 3090,
      "IT": 3091,
      "Ġconcept": 3092,
      "Ġregard": 3093,
      "Ġmaintain": 3094,
      "Ġproblems": 3095,
      "eal": 3096,
      "Ġdefin": 3097,
      "airs": 3098,
      "ĠFrench": 3099,
      "Ġdeep": 3100,
      "Ġplaying": 3101,
      "Ġconvers": 3102,
      "Ġpath": 3103,
      "aign": 3104,
      "rel": 3105,
      "ĠWhile": 3106,
      "Ġbad": 3107,
      "ological": 3108,
      "Ġ2013": 3109,
      "Ġagent": 3110,
      "ĠAg": 3111,
      "ID": 3112,
      "Ġsimply": 3113,
      "Ġhy": 3114,
      "ĠNot": 3115,
      "Ġmax": 3116,
      "ĠAnswer": 3117,
      "ION": 3118,
      "Ġpublished": 3119,
      "ety": 3120,
      "Ġsun": 3121,
      "ĠRed": 3122,
      "Ġdetails": 3123,
      "UN": 3124,
      "Ġbeginning": 3125,
      "Ġfinancial": 3126,
      "Ġ23": 3127,
      "icip": 3128,
      "ĠArt": 3129,
      "Ġhon": 3130,
      "wise": 3131,
      "Ġtour": 3132,
      "Ġreplaced": 3133,
      "Ġ22": 3134,
      "entence": 3135,
      "ĠStud": 3136,
      "urance": 3137,
      "Ġpolitical": 3138,
      "ael": 3139,
      "Ġoil": 3140,
      "ĠPat": 3141,
      "Ġnumer": 3142,
      "Ġgrad": 3143,
      "ĠMark": 3144,
      "aches": 3145,
      "omb": 3146,
      "Ġcat": 3147,
      "ivil": 3148,
      "\")": 3149,
      "Ġstring": 3150,
      "Ġmessage": 3151,
      "hib": 3152,
      "Ġavoid": 3153,
      "Ġ2016": 3154,
      "Ġpolice": 3155,
      "Ġworked": 3156,
      "mon": 3157,
      "iforn": 3158,
      "atory": 3159,
      "emb": 3160,
      "Ġautom": 3161,
      "aint": 3162,
      "Ġmodern": 3163,
      "Ġinternational": 3164,
      "ml": 3165,
      "ĠÐ¿": 3166,
      "Sc": 3167,
      "aries": 3168,
      "astic": 3169,
      "Ġestablished": 3170,
      "Ġdraw": 3171,
      "ctions": 3172,
      "Ġ2008": 3173,
      "Ġdeg": 3174,
      "Ġconv": 3175,
      "Ġrefer": 3176,
      "Ġconsum": 3177,
      "Ġreve": 3178,
      "Ġlonger": 3179,
      "Ġscore": 3180,
      "oke": 3181,
      "Ġexact": 3182,
      "Ġfelt": 3183,
      "Ġvia": 3184,
      "Ġreturned": 3185,
      "Ġideas": 3186,
      "ection": 3187,
      "rec": 3188,
      "round": 3189,
      "ii": 3190,
      "obile": 3191,
      "Ġcustomer": 3192,
      "lying": 3193,
      "Ġhistor": 3194,
      "ett": 3195,
      "serv": 3196,
      "Ġinn": 3197,
      "Ġborn": 3198,
      "Ġ2014": 3199,
      "ado": 3200,
      "ĠPersonY": 3201,
      "ĠSup": 3202,
      "pite": 3203,
      "ifornia": 3204,
      "Ġinj": 3205,
      "ĠLeague": 3206,
      "Ġpaper": 3207,
      "alysis": 3208,
      "Ġeveryone": 3209,
      "Ġ2015": 3210,
      "Ġcause": 3211,
      "++": 3212,
      "Ġkill": 3213,
      "eks": 3214,
      "ris": 3215,
      "rab": 3216,
      "hens": 3217,
      "ibrary": 3218,
      "orks": 3219,
      "rown": 3220,
      "Ġgreen": 3221,
      "Ġassist": 3222,
      "Ġgoes": 3223,
      "ĠFebruary": 3224,
      "Ġquite": 3225,
      "Ġ2007": 3226,
      "ĠPhil": 3227,
      "itc": 3228,
      "iences": 3229,
      "que": 3230,
      "acing": 3231,
      "Ġpositive": 3232,
      "æĺ": 3233,
      "Ġsil": 3234,
      "Ġ2017": 3235,
      "Ġmeaning": 3236,
      "Ġgreater": 3237,
      "Ġdrive": 3238,
      "Ġboy": 3239,
      "inn": 3240,
      "aught": 3241,
      "Ġconcern": 3242,
      "Ġhum": 3243,
      "Ġmix": 3244,
      "asc": 3245,
      "Ġseems": 3246,
      "Ġrev": 3247,
      "Ġplatform": 3248,
      "col": 3249,
      "ropri": 3250,
      "oo": 3251,
      "Ġlimit": 3252,
      "Ġrisk": 3253,
      "Ġleading": 3254,
      "ĠJust": 3255,
      "ëĭ": 3256,
      "è¿": 3257,
      "Ġsens": 3258,
      "Ġeffic": 3259,
      "ico": 3260,
      "anch": 3261,
      "26": 3262,
      "urb": 3263,
      "Ġmass": 3264,
      "Ġitself": 3265,
      "pped": 3266,
      "Ġallows": 3267,
      "OT": 3268,
      "Ġtowards": 3269,
      "uth": 3270,
      "ĠPresident": 3271,
      "Ġ193": 3272,
      "Ġwonder": 3273,
      ".)": 3274,
      "Ġveh": 3275,
      "Ġbi": 3276,
      "Ġphysical": 3277,
      "imately": 3278,
      "lier": 3279,
      "Sh": 3280,
      "Ġmoment": 3281,
      "Ð´": 3282,
      "Ġfamil": 3283,
      "Ġemot": 3284,
      "born": 3285,
      "ought": 3286,
      "Ġpark": 3287,
      "Ġ2009": 3288,
      "Ġful": 3289,
      "Ġsolution": 3290,
      "based": 3291,
      "iles": 3292,
      "field": 3293,
      "weet": 3294,
      "Ġcompletely": 3295,
      "Ġentered": 3296,
      "Ġlos": 3297,
      "ED": 3298,
      "Ġsle": 3299,
      "View": 3300,
      "Ġactivities": 3301,
      "ĠCollege": 3302,
      "Ġregion": 3303,
      "Ġplaces": 3304,
      "Ġcountries": 3305,
      "Ġvict": 3306,
      "ĠDavid": 3307,
      "cont": 3308,
      "Ġwide": 3309,
      "Ġcand": 3310,
      "asons": 3311,
      "ournal": 3312,
      "Ġletter": 3313,
      "ros": 3314,
      "Ġboard": 3315,
      "Ġcurrently": 3316,
      "Ġmentioned": 3317,
      "Ġerror": 3318,
      "ÑģÑĤ": 3319,
      "itute": 3320,
      "izes": 3321,
      "odes": 3322,
      "ĠInternational": 3323,
      "Be": 3324,
      "ĠBu": 3325,
      "Ġmedical": 3326,
      "Ġimm": 3327,
      "Ġblog": 3328,
      "Ġinvolved": 3329,
      "Ġallowed": 3330,
      "light": 3331,
      "Ġwood": 3332,
      "Ġnecessary": 3333,
      "elebr": 3334,
      "Ġrelease": 3335,
      "wood": 3336,
      "ken": 3337,
      "Ġconditions": 3338,
      "atur": 3339,
      "Ġdrug": 3340,
      "Ġquickly": 3341,
      "Ġsn": 3342,
      "Cont": 3343,
      "å¤": 3344,
      "Ġlimited": 3345,
      "Ġcomputer": 3346,
      "Ġforward": 3347,
      "Ġcross": 3348,
      "aughter": 3349,
      "27": 3350,
      "ĠSch": 3351,
      "ension": 3352,
      "Ġgrowth": 3353,
      "Ġnorm": 3354,
      "Ġplant": 3355,
      "Ġlives": 3356,
      "Ġbroad": 3357,
      "itect": 3358,
      "iÃ³n": 3359,
      "Ġstru": 3360,
      "Ġemb": 3361,
      "Ġwife": 3362,
      "Ġscreen": 3363,
      "Ġability": 3364,
      "nes": 3365,
      "Ġnorth": 3366,
      "Ġserved": 3367,
      "ĠCalifornia": 3368,
      "Ġsus": 3369,
      "Ġcondition": 3370,
      "Ġspeed": 3371,
      "Ġmatter": 3372,
      "Ġten": 3373,
      "MP": 3374,
      "Ġpers": 3375,
      "99": 3376,
      "Ġitems": 3377,
      "ET": 3378,
      "ville": 3379,
      "Ġdecision": 3380,
      "ampionship": 3381,
      "ĠAc": 3382,
      "ĠEar": 3383,
      "edd": 3384,
      "Ġcoming": 3385,
      "LO": 3386,
      "Ġsource": 3387,
      "Ġdecl": 3388,
      "Ġintegr": 3389,
      "Ġpractice": 3390,
      "ocr": 3391,
      "ĠAssoci": 3392,
      "ĠSim": 3393,
      "Ġprior": 3394,
      "Ġmilitary": 3395,
      "Ġviol": 3396,
      "Ġago": 3397,
      "ĠIndia": 3398,
      "One": 3399,
      "Ġwid": 3400,
      "ĠEast": 3401,
      "Ġcampaign": 3402,
      "Ġparticipants": 3403,
      "igr": 3404,
      "Ġdecided": 3405,
      "Ġweeks": 3406,
      "atically": 3407,
      "ening": 3408,
      "hood": 3409,
      "irit": 3410,
      "Ġstandard": 3411,
      "oes": 3412,
      "Ġesc": 3413,
      "mbol": 3414,
      "Ġresources": 3415,
      "Ġmount": 3416,
      "Ġgives": 3417,
      "ari": 3418,
      "Ġrecent": 3419,
      "ĠHol": 3420,
      "After": 3421,
      "Ġrock": 3422,
      "ha": 3423,
      "Ġmanufact": 3424,
      "Ġcenter": 3425,
      "uge": 3426,
      "Ġrights": 3427,
      "Ġbrand": 3428,
      "Ġprobably": 3429,
      "aily": 3430,
      "hem": 3431,
      "Ġprevent": 3432,
      "Is": 3433,
      "utive": 3434,
      "ĠBlack": 3435,
      "ĠCenter": 3436,
      "incip": 3437,
      "Ġfrequ": 3438,
      "Ġfast": 3439,
      "ĠIndian": 3440,
      "Ñĩ": 3441,
      "Ġprem": 3442,
      "Ġdownload": 3443,
      "anger": 3444,
      "ager": 3445,
      "Ġmid": 3446,
      "At": 3447,
      "Ġsubst": 3448,
      "order": 3449,
      "ev": 3450,
      "Ġê": 3451,
      "Ġdied": 3452,
      "Ġcy": 3453,
      "Ġbal": 3454,
      "Ġ28": 3455,
      "Ġflow": 3456,
      "Ġ27": 3457,
      "Ġachieve": 3458,
      "Ġtemper": 3459,
      "Ġstri": 3460,
      "Ġleaders": 3461,
      "Ġinvestig": 3462,
      "iding": 3463,
      "Ġsection": 3464,
      "Ġweight": 3465,
      "Ġprep": 3466,
      "Ġyourself": 3467,
      "rote": 3468,
      "atives": 3469,
      "Ġnothing": 3470,
      "Ġabsol": 3471,
      "plate": 3472,
      "Ġtreatment": 3473,
      "ĠTV": 3474,
      "rong": 3475,
      "oub": 3476,
      "Ġsex": 3477,
      "tty": 3478,
      "Ġstudent": 3479,
      "Ġargument": 3480,
      "åĬ": 3481,
      "Ġpan": 3482,
      "Ġsales": 3483,
      "Ġund": 3484,
      "Ġ...": 3485,
      "Ġblock": 3486,
      "lands": 3487,
      "eech": 3488,
      "Ġfeed": 3489,
      "atter": 3490,
      "ĠEngland": 3491,
      "ĠOff": 3492,
      "Here": 3493,
      "Ġinstance": 3494,
      "agn": 3495,
      "ping": 3496,
      "ellow": 3497,
      "oul": 3498,
      "lection": 3499,
      "Ġ26": 3500,
      "Ġthemselves": 3501,
      "Ġdeveloped": 3502,
      "Ġsouth": 3503,
      "ocks": 3504,
      "BC": 3505,
      "Ġrecommend": 3506,
      "itar": 3507,
      "inated": 3508,
      "ĠCour": 3509,
      "earch": 3510,
      "Ġready": 3511,
      "Ġliter": 3512,
      "Ġcirc": 3513,
      "Ġimmed": 3514,
      "ĠIr": 3515,
      "Ġgoals": 3516,
      "?\"": 3517,
      "Ġdoor": 3518,
      "Ġpropos": 3519,
      "just": 3520,
      "Ġcourt": 3521,
      "rought": 3522,
      "Ġdescribed": 3523,
      "Ġcam": 3524,
      "aby": 3525,
      "ĠÐ²": 3526,
      "Ġemer": 3527,
      "ny": 3528,
      "Ġqual": 3529,
      "istory": 3530,
      "Ġreceive": 3531,
      "Ġconduct": 3532,
      "ying": 3533,
      "inary": 3534,
      "ptions": 3535,
      "erse": 3536,
      "Ġpromot": 3537,
      "Ġknew": 3538,
      "ĠChina": 3539,
      "ĠAcc": 3540,
      "gen": 3541,
      "ears": 3542,
      "Ġseparated": 3543,
      "iber": 3544,
      "chan": 3545,
      "gers": 3546,
      "iring": 3547,
      "Ġcases": 3548,
      "Ġhappy": 3549,
      "overs": 3550,
      "ĠUK": 3551,
      "Ġrestaur": 3552,
      "Ġattention": 3553,
      "Ġrequires": 3554,
      "ederal": 3555,
      "Ġsave": 3556,
      "45": 3557,
      "ĠJames": 3558,
      "List": 3559,
      "Ġmeeting": 3560,
      "Ġparents": 3561,
      "IS": 3562,
      "ĠGerman": 3563,
      "Ġbank": 3564,
      "Ġindepend": 3565,
      "ares": 3566,
      "ĠCoun": 3567,
      "Ġblue": 3568,
      "IC": 3569,
      "Ġbehav": 3570,
      "ĠWash": 3571,
      "ithm": 3572,
      "agement": 3573,
      "bre": 3574,
      "Ġlargest": 3575,
      "used": 3576,
      "ĠAustralia": 3577,
      "hest": 3578,
      "Ġcompon": 3579,
      "Ġpresident": 3580,
      "fr": 3581,
      "ror": 3582,
      "zz": 3583,
      "Ġnovel": 3584,
      "Ġfollowed": 3585,
      "ĠRepublic": 3586,
      "ipment": 3587,
      "ocal": 3588,
      "Ġcomfort": 3589,
      "Ġorganization": 3590,
      "Ġlegal": 3591,
      "ĠPaul": 3592,
      "Ġwhose": 3593,
      "Ġdistrib": 3594,
      "rend": 3595,
      "Ġtelevision": 3596,
      "28": 3597,
      "Ġcouple": 3598,
      "Ġserve": 3599,
      "Ġblood": 3600,
      "Ġdistrict": 3601,
      "ospital": 3602,
      "ĠGreat": 3603,
      "Ġconstruction": 3604,
      "Ġproduced": 3605,
      "Ġwest": 3606,
      "Ġgave": 3607,
      "Ġaward": 3608,
      "29": 3609,
      "Ġappropri": 3610,
      "Ġkids": 3611,
      "Ġdise": 3612,
      "Ġcontinued": 3613,
      "ened": 3614,
      "Ġworth": 3615,
      "Ġhol": 3616,
      "Ġcelebr": 3617,
      "ĠStreet": 3618,
      "ĠSub": 3619,
      "Ġbrother": 3620,
      "Ġ2019": 3621,
      "Ġtypically": 3622,
      "ĠTra": 3623,
      "mar": 3624,
      "unk": 3625,
      "All": 3626,
      "Ġhands": 3627,
      "ĠMor": 3628,
      "ports": 3629,
      "ĠCanada": 3630,
      "Ġactivity": 3631,
      "Ġsuccessful": 3632,
      "Ġstates": 3633,
      "Ġgets": 3634,
      "itution": 3635,
      "ĠPort": 3636,
      "Ġload": 3637,
      "Ġsal": 3638,
      "Ġtried": 3639,
      "Ġclick": 3640,
      "Ġlooks": 3641,
      "pe": 3642,
      "Ġsort": 3643,
      "Americ": 3644,
      "Ġones": 3645,
      "Ġscient": 3646,
      "Ġgun": 3647,
      "Ġnature": 3648,
      "eum": 3649,
      "Ġopportunity": 3650,
      "no": 3651,
      "ags": 3652,
      "ĠDay": 3653,
      "70": 3654,
      "Ġ2005": 3655,
      "ĠRet": 3656,
      "rie": 3657,
      "ago": 3658,
      "Ġidentify": 3659,
      "Ġdark": 3660,
      "Ġlevels": 3661,
      "Ġcompleted": 3662,
      "Ġstren": 3663,
      "Ġchoice": 3664,
      "']": 3665,
      "band": 3666,
      "RE": 3667,
      "oyal": 3668,
      "ĠEurope": 3669,
      "gar": 3670,
      "Ġfem": 3671,
      "Ġcollection": 3672,
      "Ġter": 3673,
      "raz": 3674,
      "step": 3675,
      "Ġgold": 3676,
      "Ġgiving": 3677,
      "Ġprograms": 3678,
      "Ġsummer": 3679,
      "Ġeasily": 3680,
      "Ġstage": 3681,
      "ĠRiver": 3682,
      "like": 3683,
      "div": 3684,
      "ĠSystem": 3685,
      "Ġjud": 3686,
      "ĠLaw": 3687,
      "Ġappl": 3688,
      "vant": 3689,
      "Ġeyes": 3690,
      "oming": 3691,
      "uate": 3692,
      "ram": 3693,
      "Ġfix": 3694,
      "Ġpolicy": 3695,
      "Ġdead": 3696,
      "abase": 3697,
      "idents": 3698,
      "ius": 3699,
      "Ġstructure": 3700,
      "ula": 3701,
      "Ġstarting": 3702,
      "Ġmorning": 3703,
      "isions": 3704,
      "ä¸Ģ": 3705,
      "Ġoppos": 3706,
      "ĠFrom": 3707,
      "Ġdifference": 3708,
      "Ġhair": 3709,
      "Ġproviding": 3710,
      "ĠAnt": 3711,
      "CT": 3712,
      "Ġpossibly": 3713,
      "Pass": 3714,
      "Ġpurpose": 3715,
      "udd": 3716,
      "Ġaw": 3717,
      "Ġanyone": 3718,
      "Ġwrote": 3719,
      "Ġtal": 3720,
      "Ġmachine": 3721,
      "Ġsequence": 3722,
      "35": 3723,
      "ij": 3724,
      "unction": 3725,
      "ĠEuropean": 3726,
      "Ġindividuals": 3727,
      "ĠÐ¸": 3728,
      "men": 3729,
      "ĠAI": 3730,
      "Ġcast": 3731,
      "ests": 3732,
      "Ġtells": 3733,
      "ae": 3734,
      "Ġmissing": 3735,
      "Ġneigh": 3736,
      "rs": 3737,
      "Ġteac": 3738,
      "Ġstar": 3739,
      "Ġtools": 3740,
      "ĠNet": 3741,
      "Ġplans": 3742,
      "ipe": 3743,
      "ĠPal": 3744,
      "ä»¥": 3745,
      "ĠFirst": 3746,
      "Ġsuff": 3747,
      "urt": 3748,
      "Ġreported": 3749,
      "Ġisn": 3750,
      "Given": 3751,
      "ĠInc": 3752,
      "Ġapart": 3753,
      "By": 3754,
      "Ġcontinuous": 3755,
      "arden": 3756,
      "ishing": 3757,
      "Ġeffective": 3758,
      "Ġbelief": 3759,
      "ĠCons": 3760,
      "Ġspans": 3761,
      "Ġequal": 3762,
      "Ã¼": 3763,
      "Ġprojects": 3764,
      "ĠThen": 3765,
      "Ġ2000": 3766,
      "aker": 3767,
      "Pl": 3768,
      "Ġhous": 3769,
      "Ġspan": 3770,
      "Ġestablish": 3771,
      "ka": 3772,
      "icks": 3773,
      "Ġanalysis": 3774,
      "ĠAut": 3775,
      "Ġcharacters": 3776,
      "ression": 3777,
      "Ġsymbol": 3778,
      "ĠOnce": 3779,
      "Ġfloor": 3780,
      "Ġspecies": 3781,
      "Ġenter": 3782,
      "Ġvot": 3783,
      "Ġadministr": 3784,
      "Ġtrain": 3785,
      "Ġtransport": 3786,
      "ĠWashington": 3787,
      "ters": 3788,
      "Ġsurround": 3789,
      "Ġpretty": 3790,
      "Ġassociated": 3791,
      "omen": 3792,
      "Ġtraditional": 3793,
      "Ã¤": 3794,
      "Ġrespectively": 3795,
      "import": 3796,
      "75": 3797,
      "Ġcommands": 3798,
      "Ġmaterials": 3799,
      "igned": 3800,
      "198": 3801,
      "ĠGroup": 3802,
      "Ġmarketing": 3803,
      "ĠDirect": 3804,
      "Ġchanged": 3805,
      "Ġsafety": 3806,
      "Ġlif": 3807,
      "Ġprefer": 3808,
      "Ġinvolves": 3809,
      "AD": 3810,
      "lor": 3811,
      "ĠChurch": 3812,
      "See": 3813,
      "hold": 3814,
      "iques": 3815,
      "ĠDan": 3816,
      "AM": 3817,
      "ston": 3818,
      "Ġschools": 3819,
      "))": 3820,
      "data": 3821,
      "Ġteams": 3822,
      "Ġfilms": 3823,
      "___": 3824,
      "Ġinvolve": 3825,
      "Ġsurv": 3826,
      "ourney": 3827,
      "She": 3828,
      "Ġrespond": 3829,
      "Ġseek": 3830,
      "Ġformat": 3831,
      "iously": 3832,
      "å°": 3833,
      "Ġsafe": 3834,
      "ĠFrank": 3835,
      "ady": 3836,
      "Ġanaly": 3837,
      "odel": 3838,
      "ĠÑģ": 3839,
      "Ġprogress": 3840,
      "éĢ": 3841,
      "mission": 3842,
      "includ": 3843,
      ":</": 3844,
      "Ġreach": 3845,
      "Ġple": 3846,
      "Ø§": 3847,
      "Ġexecute": 3848,
      "Ġculture": 3849,
      "Ġrace": 3850,
      "ĠRober": 3851,
      "iers": 3852,
      "Ġbrought": 3853,
      "Ġdevice": 3854,
      "ĠTrans": 3855,
      "Ġanswered": 3856,
      "Ġprec": 3857,
      "Ġstories": 3858,
      "arily": 3859,
      "Ġcool": 3860,
      "åŃ": 3861,
      "Ġpiece": 3862,
      "Ġspecified": 3863,
      "itation": 3864,
      "Ġpattern": 3865,
      "Id": 3866,
      "inter": 3867,
      "Ġskin": 3868,
      "Ġscen": 3869,
      "olic": 3870,
      "olf": 3871,
      "Ġproperties": 3872,
      "Ġded": 3873,
      "Ġforce": 3874,
      "itchen": 3875,
      "Ġcredit": 3876,
      "Ð½Ð¸": 3877,
      "æķ": 3878,
      "Ġ60": 3879,
      "Ġhelps": 3880,
      "Name": 3881,
      "Ġslow": 3882,
      "Ġsche": 3883,
      "ĠBen": 3884,
      "Ġrelig": 3885,
      "Ġthreat": 3886,
      "Ġrecently": 3887,
      "Ġepis": 3888,
      "Ġmethods": 3889,
      "ĠDem": 3890,
      "aper": 3891,
      "Ġgenerated": 3892,
      "ĠCup": 3893,
      "Ġchurch": 3894,
      "Ġfinally": 3895,
      "Ġinvolving": 3896,
      "ores": 3897,
      "Ġcosts": 3898,
      "ĠRich": 3899,
      "ĠGoogle": 3900,
      "Ġillustrated": 3901,
      "Ġkilled": 3902,
      "ĠSen": 3903,
      "33": 3904,
      "orthern": 3905,
      "ped": 3906,
      "urd": 3907,
      "Ġattrib": 3908,
      "ython": 3909,
      "ĠNow": 3910,
      "azing": 3911,
      ";&": 3912,
      "ester": 3913,
      "American": 3914,
      "Ġbeg": 3915,
      "ils": 3916,
      "word": 3917,
      "Ġappoint": 3918,
      "Ġacqu": 3919,
      "Ġhop": 3920,
      "Ġclient": 3921,
      "Ġtree": 3922,
      "Ġshoot": 3923,
      "ĠAP": 3924,
      "Ġcategory": 3925,
      "sych": 3926,
      "Ġdescription": 3927,
      "Ġalthough": 3928,
      "Ġclients": 3929,
      "Ġhtt": 3930,
      "OK": 3931,
      "Ġrule": 3932,
      "Ġ29": 3933,
      "Ġsometimes": 3934,
      "ĠSl": 3935,
      "Ġcapital": 3936,
      "Ġserver": 3937,
      "Ġimages": 3938,
      "Ġ2004": 3939,
      "ĠBel": 3940,
      "Ġdigital": 3941,
      "Ġder": 3942,
      "avig": 3943,
      "vey": 3944,
      "Ġsituation": 3945,
      "change": 3946,
      "inations": 3947,
      "Ġhighly": 3948,
      "ĠTex": 3949,
      "Ġvoice": 3950,
      "Ġge": 3951,
      "Ġprincip": 3952,
      "Ġglobal": 3953,
      "Ġmer": 3954,
      "ĠCr": 3955,
      "ĠDepartment": 3956,
      "Ġbenefits": 3957,
      "Ġdirector": 3958,
      "æĺ¯": 3959,
      "erve": 3960,
      "Ġvillage": 3961,
      "Ġtrust": 3962,
      "pen": 3963,
      "Ġopened": 3964,
      "arc": 3965,
      "rian": 3966,
      "ĠGreen": 3967,
      "omas": 3968,
      "Ġeffects": 3969,
      "Ġadvice": 3970,
      "Ġpatients": 3971,
      "orage": 3972,
      "istry": 3973,
      "ĠMary": 3974,
      "istrict": 3975,
      "Ph": 3976,
      "Ġshall": 3977,
      "Ġsample": 3978,
      "AP": 3979,
      "resp": 3980,
      "imal": 3981,
      "oms": 3982,
      "Ã¶": 3983,
      "Ġlatest": 3984,
      "ĠMac": 3985,
      "Ġchance": 3986,
      "ĠWind": 3987,
      "Ġheard": 3988,
      "Ġsend": 3989,
      "ĠLou": 3990,
      "Ġtouchdown": 3991,
      "nown": 3992,
      "Ġcommerc": 3993,
      "Ġannounced": 3994,
      "Ġcollege": 3995,
      "Ġlack": 3996,
      "rig": 3997,
      "Ġwrong": 3998,
      "positive": 3999,
      "roy": 4000,
      "strong": 4001,
      "Ġaltern": 4002,
      "ĠHall": 4003,
      "Ġsurface": 4004,
      "ĠTH": 4005,
      "Ġgrand": 4006,
      "rast": 4007,
      "Ġincreased": 4008,
      "Ġcomment": 4009,
      "Ġearn": 4010,
      "Ġcarry": 4011,
      "Ġsurpr": 4012,
      "quest": 4013,
      "US": 4014,
      "ĠCommun": 4015,
      "Ġang": 4016,
      "ĠMart": 4017,
      "Ġfeeling": 4018,
      "ki": 4019,
      "Ġchem": 4020,
      "Ġid": 4021,
      "tee": 4022,
      "ĠSam": 4023,
      "Ġturned": 4024,
      "ĠOb": 4025,
      "è¡": 4026,
      "Res": 4027,
      "Ġstatus": 4028,
      "bon": 4029,
      "65": 4030,
      "Ġroll": 4031,
      "ĠAre": 4032,
      "Ġmoving": 4033,
      "Ġdaughter": 4034,
      "lymp": 4035,
      "ĠCompany": 4036,
      "Ġthr": 4037,
      "Ġattract": 4038,
      "outhern": 4039,
      "Ð·": 4040,
      "Ġscience": 4041,
      "ht": 4042,
      "Ġexactly": 4043,
      "ĠWhite": 4044,
      "90": 4045,
      "duc": 4046,
      "river": 4047,
      "Ġinterview": 4048,
      "Ġspent": 4049,
      "mark": 4050,
      "Ġequipment": 4051,
      "istics": 4052,
      "mas": 4053,
      "het": 4054,
      "Ġoverall": 4055,
      "Ġdecide": 4056,
      "Ġfiles": 4057,
      "ĠAssociation": 4058,
      "udget": 4059,
      "elling": 4060,
      "ENT": 4061,
      "ĠMore": 4062,
      "inese": 4063,
      "Ġeconomic": 4064,
      "eters": 4065,
      "Ġfavorite": 4066,
      "ĠHealth": 4067,
      "Ġrecommended": 4068,
      "enge": 4069,
      "ĠDuring": 4070,
      "Ġwarm": 4071,
      "class": 4072,
      "ĠTry": 4073,
      "ĠOut": 4074,
      "iced": 4075,
      "ĠGeorge": 4076,
      "Ġdream": 4077,
      "hel": 4078,
      "Ġsem": 4079,
      "Ġorganiz": 4080,
      "ĠAlex": 4081,
      "Ġgas": 4082,
      "Ġtim": 4083,
      "Ġcompos": 4084,
      "za": 4085,
      "Ġaccur": 4086,
      "ĠUs": 4087,
      "date": 4088,
      "ĠGovern": 4089,
      "Ġarchitect": 4090,
      "Ġyes": 4091,
      "othes": 4092,
      "Ġsaying": 4093,
      "Ġbecomes": 4094,
      "ĠOther": 4095,
      "Ġinsurance": 4096,
      "ims": 4097,
      "Ġmatches": 4098,
      "Ġshot": 4099,
      "è¯": 4100,
      "eared": 4101,
      "Ġnice": 4102,
      "Ġevidence": 4103,
      "yond": 4104,
      "64": 4105,
      "Ġframe": 4106,
      "Ġactive": 4107,
      "IF": 4108,
      "oper": 4109,
      "ĠCouncil": 4110,
      "Ġindex": 4111,
      "itz": 4112,
      "Ġearlier": 4113,
      "Ġhear": 4114,
      "ĠMichael": 4115,
      "bert": 4116,
      "Ġobtain": 4117,
      "Ġscene": 4118,
      "ulations": 4119,
      "Ġrequirements": 4120,
      "uration": 4121,
      "Ġinteresting": 4122,
      "Ġpen": 4123,
      "Ġfresh": 4124,
      "Ġreduce": 4125,
      "ĠFrance": 4126,
      "Ġprimary": 4127,
      "amic": 4128,
      "bu": 4129,
      "Ġunit": 4130,
      "ĠAlthough": 4131,
      "formation": 4132,
      "Ġbott": 4133,
      "ĠAngel": 4134,
      "Ġcandid": 4135,
      "bit": 4136,
      "ÑĢÐ°": 4137,
      "cription": 4138,
      "holder": 4139,
      "venue": 4140,
      "Ġfarm": 4141,
      "ĠRoad": 4142,
      "Col": 4143,
      "Ġreveal": 4144,
      "Ġcalcul": 4145,
      "icate": 4146,
      "Ġconstruct": 4147,
      "100": 4148,
      "ĠTw": 4149,
      "cel": 4150,
      "ressed": 4151,
      "Ġexpert": 4152,
      "ounds": 4153,
      "Ġbattle": 4154,
      "Ġpow": 4155,
      "more": 4156,
      "ayer": 4157,
      "box": 4158,
      "Ġsleep": 4159,
      "ĠInt": 4160,
      "Ġstra": 4161,
      "],": 4162,
      "ĠTechn": 4163,
      "ĠGeneral": 4164,
      "Ġeval": 4165,
      "ĠOf": 4166,
      "'d": 4167,
      "reek": 4168,
      "itude": 4169,
      "leg": 4170,
      "rey": 4171,
      "look": 4172,
      "Ġjourney": 4173,
      "Ġapplications": 4174,
      "Ġcas": 4175,
      "icated": 4176,
      "ĠBer": 4177,
      "ĠQue": 4178,
      "inner": 4179,
      "Ġstrugg": 4180,
      "mary": 4181,
      "ĠLet": 4182,
      "rial": 4183,
      "ĠService": 4184,
      "ĠKe": 4185,
      "Ġkick": 4186,
      "Ġdaily": 4187,
      "iately": 4188,
      "Ġfair": 4189,
      "Not": 4190,
      "Ġruns": 4191,
      "ĠBus": 4192,
      "Ġhighest": 4193,
      "\"&": 4194,
      "Ġcommercial": 4195,
      "Ġseven": 4196,
      "Ġnote": 4197,
      "Ġlines": 4198,
      "çĶ¨": 4199,
      "ancy": 4200,
      "Ġsett": 4201,
      "Ġsen": 4202,
      "ouns": 4203,
      "opt": 4204,
      "ĠBook": 4205,
      "Ġdemon": 4206,
      "ĠCourt": 4207,
      "Passage": 4208,
      "place": 4209,
      "Ġpair": 4210,
      "ications": 4211,
      "Ġdates": 4212,
      "print": 4213,
      "encies": 4214,
      "ĠUse": 4215,
      "www": 4216,
      "åľ¨": 4217,
      "run": 4218,
      "mm": 4219,
      "Ġthinking": 4220,
      "ĠMal": 4221,
      "Ġlarger": 4222,
      "eck": 4223,
      "Ġlic": 4224,
      "annel": 4225,
      "Ġâ": 4226,
      "Ġpurchase": 4227,
      "OS": 4228,
      "riend": 4229,
      "iated": 4230,
      "inate": 4231,
      "Ġsuit": 4232,
      "??": 4233,
      "Ġparticularly": 4234,
      "Ġapply": 4235,
      "adian": 4236,
      "Se": 4237,
      "ĠPre": 4238,
      "Ġvac": 4239,
      "unicip": 4240,
      "west": 4241,
      "ĠÐ½": 4242,
      "van": 4243,
      "ĠUp": 4244,
      "Ġult": 4245,
      "ĠDis": 4246,
      "Ġincreasing": 4247,
      "Ð¾Ð²": 4248,
      "Ġexcell": 4249,
      "haps": 4250,
      "house": 4251,
      "ĠDiv": 4252,
      "yr": 4253,
      "Ġreality": 4254,
      "Ġeight": 4255,
      "ĠAlso": 4256,
      "Ġcup": 4257,
      "Ġutil": 4258,
      "ube": 4259,
      "Ġreference": 4260,
      "Ġsecret": 4261,
      "ander": 4262,
      "century": 4263,
      "ĠGold": 4264,
      "Ġpredict": 4265,
      "Ġir": 4266,
      "Ġspirit": 4267,
      "Ġotherwise": 4268,
      "ocol": 4269,
      "Our": 4270,
      "Ġtransfer": 4271,
      "Ġeat": 4272,
      "enty": 4273,
      "Ġinnov": 4274,
      "Head": 4275,
      "à¤": 4276,
      "Ġnegative": 4277,
      "gth": 4278,
      "Ġsolutions": 4279,
      "ĠDistrict": 4280,
      "Ġremember": 4281,
      "rd": 4282,
      "ĠFin": 4283,
      "Ġconnection": 4284,
      ">.": 4285,
      "Ġwindow": 4286,
      "Ġtransl": 4287,
      "Ġfine": 4288,
      "Ġpressure": 4289,
      "Ġfeet": 4290,
      "Ġsetting": 4291,
      "ĠPe": 4292,
      "ĠFlor": 4293,
      "Ġbath": 4294,
      "Ġsongs": 4295,
      "ĠMost": 4296,
      "ĠBrown": 4297,
      "ï¼ļ": 4298,
      "Ġcert": 4299,
      "ĠAny": 4300,
      "Ġfully": 4301,
      "ref": 4302,
      "Ġdouble": 4303,
      "Ġinitial": 4304,
      "Ġship": 4305,
      "ĠConst": 4306,
      "rief": 4307,
      "ĠBay": 4308,
      "ĠĠĠĠĠĠĠĠĠĠĠĠĠĠĠĠĠĠĠ": 4309,
      "Ġ2003": 4310,
      "48": 4311,
      "Ġdegree": 4312,
      "Ġscript": 4313,
      "rael": 4314,
      "Ġarray": 4315,
      "body": 4316,
      "ffee": 4317,
      "Ġbeauty": 4318,
      "Ġleaves": 4319,
      "Ġstock": 4320,
      "Ġ;": 4321,
      "Ġmale": 4322,
      "Ġmemory": 4323,
      "Ġgramm": 4324,
      "Ġeventually": 4325,
      "ĠUnion": 4326,
      "Ġplot": 4327,
      "ĠFranc": 4328,
      "Ġcopy": 4329,
      "itionally": 4330,
      "Ġfill": 4331,
      "ait": 4332,
      "Ġmechan": 4333,
      "Ġreflect": 4334,
      "That": 4335,
      "Ġ190": 4336,
      "ĠCam": 4337,
      "Ġtrip": 4338,
      "ste": 4339,
      "ĠMount": 4340,
      "antly": 4341,
      "Ġcru": 4342,
      "ç»": 4343,
      "Ġalign": 4344,
      "ĠGood": 4345,
      "uing": 4346,
      "Ġsav": 4347,
      "ĠAvoid": 4348,
      "ya": 4349,
      "known": 4350,
      "Ġtrade": 4351,
      "Ġwel": 4352,
      "åı¯": 4353,
      "Ġjoin": 4354,
      "Ġmodels": 4355,
      "ulate": 4356,
      "ĠMex": 4357,
      "Ġwants": 4358,
      "ĠRo": 4359,
      "Ġap": 4360,
      "Ġplanning": 4361,
      "Ġadvant": 4362,
      "Ġhour": 4363,
      "iling": 4364,
      "Ġaware": 4365,
      "Ġhandle": 4366,
      "isl": 4367,
      "Ġexerc": 4368,
      "Ġdefe": 4369,
      "Ġglass": 4370,
      "Ġimmediately": 4371,
      "ĠMet": 4372,
      "Ġdial": 4373,
      "Ġanc": 4374,
      "Ġresponsible": 4375,
      "Ġforces": 4376,
      "https": 4377,
      "ĠBest": 4378,
      "Ġfinished": 4379,
      "ĠTur": 4380,
      "Ġmobile": 4381,
      "Ġheat": 4382,
      "agon": 4383,
      "Ġpoor": 4384,
      "ĠJos": 4385,
      "vis": 4386,
      "ĠInter": 4387,
      "ML": 4388,
      "Ġconfig": 4389,
      "ults": 4390,
      "ĠIN": 4391,
      "Ġvalid": 4392,
      "Ġ31": 4393,
      "ĠEnd": 4394,
      "ero": 4395,
      "Data": 4396,
      "Ġobserv": 4397,
      "Ġfactors": 4398,
      "Ġsports": 4399,
      "Ġdatabase": 4400,
      "Ġcivil": 4401,
      "ano": 4402,
      "Ġrelevant": 4403,
      "\");": 4404,
      "Ġ!": 4405,
      "porate": 4406,
      "Ġoperation": 4407,
      "Ġimag": 4408,
      "Ġaspect": 4409,
      "Ġinterested": 4410,
      "New": 4411,
      "Ġproduce": 4412,
      "Im": 4413,
      "Ġbelong": 4414,
      "craft": 4415,
      "Ġalone": 4416,
      "point": 4417,
      "SE": 4418,
      "ĠTexas": 4419,
      "ĠChristian": 4420,
      "Ġpeace": 4421,
      "ocation": 4422,
      "Ġdrink": 4423,
      "77": 4424,
      "Ġunivers": 4425,
      "55": 4426,
      "Ġemployees": 4427,
      "asket": 4428,
      "ĠAT": 4429,
      "ĠDel": 4430,
      "Ġgrowing": 4431,
      "asure": 4432,
      "Ġpartners": 4433,
      "QL": 4434,
      "Ġdemand": 4435,
      "list": 4436,
      "overy": 4437,
      "App": 4438,
      "ĠProf": 4439,
      "Ġdamage": 4440,
      "antic": 4441,
      "Ġnation": 4442,
      "Ġbusinesses": 4443,
      "Ġpowerful": 4444,
      "Ġbasic": 4445,
      "Ġcouldn": 4446,
      "Ġexpand": 4447,
      "net": 4448,
      "Ġhar": 4449,
      "Ġfigure": 4450,
      "Ġtemplate": 4451,
      "ronic": 4452,
      "ĠJew": 4453,
      "ĠClub": 4454,
      "Ġsites": 4455,
      "Ġradio": 4456,
      "ĠEach": 4457,
      "Ġmis": 4458,
      "erry": 4459,
      "Ġinteract": 4460,
      "Ġ2001": 4461,
      "En": 4462,
      "Ð¿": 4463,
      "do": 4464,
      "Ġeye": 4465,
      "Ġdrop": 4466,
      "Ġalg": 4467,
      "mitted": 4468,
      "Ġmarried": 4469,
      "è®": 4470,
      "Ġbeyond": 4471,
      "ellig": 4472,
      "Ġitem": 4473,
      "Ġbutton": 4474,
      "Ġgeneric": 4475,
      "Ġsatis": 4476,
      "Ġhelped": 4477,
      "Ġmaster": 4478,
      "ĠTom": 4479,
      "Ġfourth": 4480,
      "ING": 4481,
      "Ġkitchen": 4482,
      "azon": 4483,
      "Ġspot": 4484,
      "ĠRob": 4485,
      "Ġtick": 4486,
      "Ġhus": 4487,
      "Ġrelative": 4488,
      "ĠChinese": 4489,
      "Ġpassed": 4490,
      "Ġtemperature": 4491,
      "ĠCong": 4492,
      "la": 4493,
      "Options": 4494,
      "porary": 4495,
      "ĠGermany": 4496,
      "ĠMad": 4497,
      "Ġextrem": 4498,
      "Ġmovement": 4499,
      "Ġlands": 4500,
      "Ġturns": 4501,
      "Ġ2002": 4502,
      "Ġfirm": 4503,
      "nel": 4504,
      "Ġdistance": 4505,
      "Ġcontaining": 4506,
      "ĠCle": 4507,
      "alian": 4508,
      "Ġappears": 4509,
      "ĠMil": 4510,
      "ĠMag": 4511,
      "Ġeasier": 4512,
      "urrent": 4513,
      "Ġleader": 4514,
      "Ġtast": 4515,
      "Ġlaws": 4516,
      "Ġbudget": 4517,
      "Ġpicture": 4518,
      "Ġperformed": 4519,
      "Ġcollabor": 4520,
      "Ġadjust": 4521,
      "Ġending": 4522,
      "ĠSing": 4523,
      "Ġrent": 4524,
      "Ġincorrect": 4525,
      "iant": 4526,
      "ĠRoman": 4527,
      "ä¹": 4528,
      "Ġmeasure": 4529,
      "Ġeffort": 4530,
      "ona": 4531,
      "estival": 4532,
      "ecause": 4533,
      "ĠWell": 4534,
      "Ġfa": 4535,
      "Ġpara": 4536,
      "ĠMont": 4537,
      "Ġlooked": 4538,
      "orial": 4539,
      "Ġhotel": 4540,
      "ĠAward": 4541,
      "ipping": 4542,
      "ria": 4543,
      "Ġconsult": 4544,
      "39": 4545,
      "apter": 4546,
      "Ġpet": 4547,
      "Ġrank": 4548,
      "Ġwait": 4549,
      "Ġassess": 4550,
      "ĠList": 4551,
      "ĠParty": 4552,
      "eff": 4553,
      "Des": 4554,
      "Ġthrow": 4555,
      "pring": 4556,
      "Ġgain": 4557,
      "Ġgenerally": 4558,
      "iar": 4559,
      "Ġleaving": 4560,
      "Ġ</": 4561,
      "Ġstrength": 4562,
      "edy": 4563,
      "ĠSal": 4564,
      "Ġfamilies": 4565,
      "Ġchair": 4566,
      "ĠSum": 4567,
      "ìĹ": 4568,
      "Ġappropriate": 4569,
      "Ġmission": 4570,
      "Ġchallenging": 4571,
      "inct": 4572,
      "Ġwat": 4573,
      "ĠCreate": 4574,
      "Ġgar": 4575,
      "Ġstudies": 4576,
      "ĠClassify": 4577,
      "Ġcentral": 4578,
      "Ġmyself": 4579,
      "32": 4580,
      "ĠWil": 4581,
      "Ġopening": 4582,
      "vest": 4583,
      "Ġamazing": 4584,
      "Ġgra": 4585,
      "itiz": 4586,
      "Ġrob": 4587,
      "log": 4588,
      "ĠBill": 4589,
      "ãģ®": 4590,
      "ota": 4591,
      "Ġessential": 4592,
      "well": 4593,
      "Ġweather": 4594,
      "ĠOlymp": 4595,
      "eria": 4596,
      "but": 4597,
      "è¦": 4598,
      "ĠWrite": 4599,
      "anging": 4600,
      "Ġjoined": 4601,
      "Can": 4602,
      "Ġsimpl": 4603,
      "Ġdisease": 4604,
      "Ġapprec": 4605,
      "oma": 4606,
      "Ġapprox": 4607,
      "Ġcaused": 4608,
      "Ġaudience": 4609,
      "LL": 4610,
      "Ġexisting": 4611,
      "ancing": 4612,
      "ĠNor": 4613,
      "Ġfalse": 4614,
      "Ġdepend": 4615,
      "hi": 4616,
      "Ġnearly": 4617,
      "Ġanimals": 4618,
      "ĠHome": 4619,
      "')": 4620,
      "Ġhuge": 4621,
      "force": 4622,
      "ĠAfrica": 4623,
      "andom": 4624,
      "Ġrules": 4625,
      "Ġcalls": 4626,
      "Ġpatient": 4627,
      "Ġoffered": 4628,
      "Ġcharge": 4629,
      "Ġseparate": 4630,
      "ĠHen": 4631,
      "Ġstream": 4632,
      "ä¸Ń": 4633,
      "itter": 4634,
      "ĠMat": 4635,
      "ĠIsland": 4636,
      "Your": 4637,
      "Ġfamous": 4638,
      "Ġprop": 4639,
      "Ġchallenges": 4640,
      "Ġconversation": 4641,
      "Ġbaby": 4642,
      "abel": 4643,
      "Ġdemonstr": 4644,
      "wide": 4645,
      "38": 4646,
      "Ġnavig": 4647,
      "Ġupdate": 4648,
      "Val": 4649,
      "Ġspread": 4650,
      "RO": 4651,
      "with": 4652,
      "ĠTime": 4653,
      "Ġprofession": 4654,
      "ĠArmy": 4655,
      "åº": 4656,
      "Ġpresented": 4657,
      "Ñħ": 4658,
      "Ġspl": 4659,
      "Ġpaid": 4660,
      "Ġdro": 4661,
      "Ġlibrary": 4662,
      "Ġabsolute": 4663,
      "Ġsociety": 4664,
      "49": 4665,
      "dr": 4666,
      "Ġclasses": 4667,
      "Ġstrategy": 4668,
      "Ġsale": 4669,
      "anta": 4670,
      "Ġopportunities": 4671,
      "::": 4672,
      "ĠFace": 4673,
      "Ġrecorded": 4674,
      "Ġenh": 4675,
      "ifying": 4676,
      "37": 4677,
      "Ġmiles": 4678,
      "ĠFil": 4679,
      "Ġreports": 4680,
      "ĠMiss": 4681,
      "Ġstre": 4682,
      "Ġsust": 4683,
      "td": 4684,
      "Ġcry": 4685,
      "undred": 4686,
      "wer": 4687,
      "36": 4688,
      "Ġexplore": 4689,
      "berg": 4690,
      "Text": 4691,
      "Ġstreet": 4692,
      "Ġobjects": 4693,
      "Ġmanager": 4694,
      "acity": 4695,
      "onday": 4696,
      "Ġbehavior": 4697,
      "Ġdie": 4698,
      "Ġking": 4699,
      "Ġcontroll": 4700,
      "verse": 4701,
      "Ġplaced": 4702,
      "edding": 4703,
      "Ġselected": 4704,
      "imb": 4705,
      "ĠOver": 4706,
      "Ġdry": 4707,
      "top": 4708,
      "ogue": 4709,
      "ipped": 4710,
      "rupt": 4711,
      "Fr": 4712,
      "Ġfollows": 4713,
      "Ġunc": 4714,
      "gu": 4715,
      "Ġappeared": 4716,
      "ĠÐ¾": 4717,
      "ooth": 4718,
      "Ġartist": 4719,
      "Verse": 4720,
      "iled": 4721,
      "Ġeth": 4722,
      "Ġinstruct": 4723,
      "anish": 4724,
      "Ġcounter": 4725,
      "Ġforms": 4726,
      "Ġhom": 4727,
      "Ġdevices": 4728,
      "ĠVir": 4729,
      "ĠDef": 4730,
      "number": 4731,
      "ĠFlorida": 4732,
      "Ġwasn": 4733,
      "Ġprices": 4734,
      "Ġchart": 4735,
      "ĠRobert": 4736,
      "ĠSol": 4737,
      "ĠLake": 4738,
      "ĠMusic": 4739,
      "atever": 4740,
      "SS": 4741,
      "lo": 4742,
      "edia": 4743,
      "ĠChampionship": 4744,
      "].": 4745,
      "Ġmap": 4746,
      "Le": 4747,
      "Ġreasons": 4748,
      "Ġvehicle": 4749,
      "Ġelectric": 4750,
      "Ġthous": 4751,
      "ĠIsrael": 4752,
      "Now": 4753,
      "Ġspend": 4754,
      "Ġpieces": 4755,
      "istan": 4756,
      "idden": 4757,
      "Ġdeliver": 4758,
      "Ġremains": 4759,
      "Ġexplain": 4760,
      "Ġowners": 4761,
      "uated": 4762,
      "aid": 4763,
      "Ġreached": 4764,
      "Ġattend": 4765,
      "Ġ80": 4766,
      "Ġremove": 4767,
      "Ġharm": 4768,
      "anned": 4769,
      "Ġtechniques": 4770,
      "Ġpron": 4771,
      "Ġexternal": 4772,
      "ĠEvery": 4773,
      "gl": 4774,
      "Ġgift": 4775,
      "ĠMake": 4776,
      "Ġimpl": 4777,
      "ato": 4778,
      "Ġparam": 4779,
      "Com": 4780,
      "Ġnormal": 4781,
      "ĠWeb": 4782,
      "Ġpages": 4783,
      "Ġguitar": 4784,
      "itely": 4785,
      "Ġhusband": 4786,
      "Ġoptim": 4787,
      "Ġlabel": 4788,
      "Add": 4789,
      "works": 4790,
      "icago": 4791,
      "Ġnut": 4792,
      "\">": 4793,
      "friend": 4794,
      "à¹": 4795,
      "vere": 4796,
      "Ġcompared": 4797,
      "Ġhospital": 4798,
      "ĠSmith": 4799,
      "including": 4800,
      "88": 4801,
      "cean": 4802,
      "Ġcorrectly": 4803,
      "Gr": 4804,
      "Ġstorage": 4805,
      "ĠArch": 4806,
      "Ġamb": 4807,
      "Ġsea": 4808,
      "Ġphotos": 4809,
      "ienced": 4810,
      "ĠCarol": 4811,
      "lim": 4812,
      "Ġrestaurant": 4813,
      "def": 4814,
      "ĠMany": 4815,
      "Ġ%": 4816,
      "ĠRem": 4817,
      "ician": 4818,
      "state": 4819,
      "Ġplaceholder": 4820,
      "Ġtit": 4821,
      "Ġrail": 4822,
      "Ġheavy": 4823,
      "Ad": 4824,
      "Ġfle": 4825,
      "Ġing": 4826,
      "Ġinvestment": 4827,
      "ĠDevelop": 4828,
      "Ġelev": 4829,
      "ĠÂ£": 4830,
      "Ġonto": 4831,
      "Ġcoach": 4832,
      "Ġnarr": 4833,
      "åĽ": 4834,
      "ĠChristmas": 4835,
      "EA": 4836,
      "Ġindependent": 4837,
      "ĥ½": 4838,
      "Ġelection": 4839,
      "Over": 4840,
      "Ġbasis": 4841,
      "44": 4842,
      "String": 4843,
      "ĠGet": 4844,
      "Ġhappened": 4845,
      "ails": 4846,
      "ĠAustralian": 4847,
      "Ġ35": 4848,
      "Ġyards": 4849,
      "Ġexperiences": 4850,
      "Ġhealthy": 4851,
      "....": 4852,
      "ading": 4853,
      "Ġannual": 4854,
      "riage": 4855,
      "RUN": 4856,
      "JU": 4857,
      "ini": 4858,
      "Ġcommunication": 4859,
      "ĠSuper": 4860,
      "ĠThomas": 4861,
      "Ġvirt": 4862,
      "Ġadapt": 4863,
      "ĠScott": 4864,
      "ĠSunday": 4865,
      "ĠProv": 4866,
      "Ġuna": 4867,
      "ivery": 4868,
      "asion": 4869,
      "oday": 4870,
      "aturday": 4871,
      "Ġdyn": 4872,
      "Ġguide": 4873,
      "Ġcoffee": 4874,
      "ĠMiddle": 4875,
      "Ġdisapp": 4876,
      "Ġefficient": 4877,
      "Ġstraight": 4878,
      "Ġefforts": 4879,
      "pper": 4880,
      "Ġcompetition": 4881,
      "ĠSpec": 4882,
      "Ð¹": 4883,
      "Ġdu": 4884,
      "ALK": 4885,
      "Ġcatch": 4886,
      "ĠPeter": 4887,
      "Ġactual": 4888,
      "ightly": 4889,
      "azine": 4890,
      "ĠPress": 4891,
      "Ġexcellent": 4892,
      "Ġbul": 4893,
      "ĠRock": 4894,
      "ĠFre": 4895,
      "owl": 4896,
      "EO": 4897,
      "Ġthus": 4898,
      "ashion": 4899,
      "inder": 4900,
      "ĠAN": 4901,
      "Ġfat": 4902,
      "http": 4903,
      "Ġsets": 4904,
      "Ġnom": 4905,
      "Ġpsych": 4906,
      "Person": 4907,
      "Ġhab": 4908,
      "burg": 4909,
      "Ġice": 4910,
      "ĠDet": 4911,
      "Ġsigned": 4912,
      "Ġmetal": 4913,
      "Ġclosed": 4914,
      "Ġadding": 4915,
      "ulated": 4916,
      "ĠFriday": 4917,
      "ĠSk": 4918,
      "ĠPost": 4919,
      "pping": 4920,
      "LOOK": 4921,
      "iny": 4922,
      "Ġshared": 4923,
      "Ġtrig": 4924,
      "file": 4925,
      "ĠJapanese": 4926,
      "ĠHot": 4927,
      "ĠÐº": 4928,
      "Ġexhib": 4929,
      "ĠAnn": 4930,
      "Ġproced": 4931,
      "Ġbur": 4932,
      "âĢĿ.": 4933,
      "Ġowner": 4934,
      "ĠSince": 4935,
      "iration": 4936,
      "ias": 4937,
      "Ġjump": 4938,
      "Ġrecords": 4939,
      "Ġinstr": 4940,
      "ga": 4941,
      "ĠOh": 4942,
      "They": 4943,
      "ario": 4944,
      "js": 4945,
      "Ġreact": 4946,
      "Ġcab": 4947,
      "ologies": 4948,
      "Ġsubsequ": 4949,
      "new": 4950,
      "Ġacadem": 4951,
      "ĠCath": 4952,
      "Man": 4953,
      "Ġsch": 4954,
      "Ġoccup": 4955,
      "Ġsources": 4956,
      "Ġgraph": 4957,
      "ĠCamp": 4958,
      "Ġwriter": 4959,
      "formed": 4960,
      "ĠID": 4961,
      "Ġisland": 4962,
      "Ġentry": 4963,
      "writ": 4964,
      "eds": 4965,
      "iable": 4966,
      "ette": 4967,
      "eph": 4968,
      "ena": 4969,
      "gal": 4970,
      "67": 4971,
      "oz": 4972,
      "Ġfemale": 4973,
      "IM": 4974,
      "turn": 4975,
      "Sp": 4976,
      "Ġbegins": 4977,
      "Ġinternet": 4978,
      "ĠCentral": 4979,
      "Ġregarding": 4980,
      "WALK": 4981,
      "34": 4982,
      "arant": 4983,
      "ĠMem": 4984,
      "ĠSur": 4985,
      "Ġeast": 4986,
      "Ġmill": 4987,
      "Ġrates": 4988,
      "Ġorganizations": 4989,
      "uses": 4990,
      "Ġsummary": 4991,
      "JUMP": 4992,
      "Ġarm": 4993,
      "Ġconflic": 4994,
      "Ġbirths": 4995,
      "Ġur": 4996,
      "inger": 4997,
      "Ġadvert": 4998,
      "ystem": 4999,
      "Ġcells": 5000,
      "95": 5001,
      "Ġfinds": 5002,
      "ĠTown": 5003,
      "ĠLit": 5004,
      "II": 5005,
      "ĠFore": 5006,
      "Ġoffering": 5007,
      "Ġflu": 5008,
      "ĠAfrican": 5009,
      "Ġextremely": 5010,
      "Ġuseful": 5011,
      "ĠEarth": 5012,
      "Ġopin": 5013,
      "Ġheader": 5014,
      "Ġcompl": 5015,
      "Ġpaint": 5016,
      "Ġwish": 5017,
      "dule": 5018,
      "ĠInstitute": 5019,
      "Ġquot": 5020,
      "Ġsupply": 5021,
      "Ġcritical": 5022,
      "Ġfinding": 5023,
      "Ġcraft": 5024,
      "Ġmanage": 5025,
      "Ġjournal": 5026,
      "Ġcovered": 5027,
      "Ġanimal": 5028,
      "Ġformed": 5029,
      "Ġwild": 5030,
      "Ġí": 5031,
      "icine": 5032,
      "ĠFe": 5033,
      "Ġended": 5034,
      "ĠGrand": 5035,
      "ĠAcadem": 5036,
      "Ġburn": 5037,
      "ĠLos": 5038,
      "Ġdetect": 5039,
      "ixt": 5040,
      "icon": 5041,
      "aling": 5042,
      "rowd": 5043,
      "Ġinspired": 5044,
      "hips": 5045,
      "Ġcamera": 5046,
      "Ġpurs": 5047,
      "ducation": 5048,
      "Ġbird": 5049,
      "this": 5050,
      "Ġanswerable": 5051,
      "Ġfilter": 5052,
      "Ġplays": 5053,
      "Ġtherap": 5054,
      "ĠLouis": 5055,
      "Ġpresence": 5056,
      "Ġrap": 5057,
      "ĠCheck": 5058,
      "Ġquant": 5059,
      "å¼": 5060,
      "Ġcash": 5061,
      "Ġprote": 5062,
      "Ġtag": 5063,
      "Ġsmaller": 5064,
      "while": 5065,
      "ĠJes": 5066,
      "Ġ1990": 5067,
      "Ġfederal": 5068,
      "ATION": 5069,
      "Ġ\\": 5070,
      "Ġhundred": 5071,
      "ĠKore": 5072,
      "ĠJo": 5073,
      "From": 5074,
      "Ġcold": 5075,
      "Ġrows": 5076,
      "Ġcancer": 5077,
      "ental": 5078,
      "ĠMonday": 5079,
      "Ġforest": 5080,
      "Ġer": 5081,
      "gn": 5082,
      "ĠHill": 5083,
      "Ġpool": 5084,
      "Ġestim": 5085,
      "PS": 5086,
      "Ġphil": 5087,
      "Ġchallenge": 5088,
      "Ġrelation": 5089,
      "Ġdoll": 5090,
      "ala": 5091,
      "enture": 5092,
      "ĠBusiness": 5093,
      "Ġlas": 5094,
      "ĠRel": 5095,
      "Ġprompt": 5096,
      "ĠWestern": 5097,
      "ĠPet": 5098,
      "ĠPri": 5099,
      "Ġtraffic": 5100,
      "miss": 5101,
      "from": 5102,
      "ifies": 5103,
      "Ġpull": 5104,
      "Ġstress": 5105,
      "ĠFound": 5106,
      "Ġpreviously": 5107,
      "fit": 5108,
      "Ġphoto": 5109,
      "Ġdecor": 5110,
      "Ġcultural": 5111,
      "ĠRussian": 5112,
      "Context": 5113,
      "Ġexperienced": 5114,
      "Comp": 5115,
      "thlet": 5116,
      "CA": 5117,
      "Ġdescribes": 5118,
      "Ġunits": 5119,
      "Ġbenefit": 5120,
      "greg": 5121,
      "Ġfactoid": 5122,
      "case": 5123,
      "Ġencouraged": 5124,
      "ita": 5125,
      "ĠTor": 5126,
      "197": 5127,
      "ses": 5128,
      "Ġdiversity": 5129,
      "ĠMel": 5130,
      "ĠVol": 5131,
      "ĠDu": 5132,
      "care": 5133,
      "Ġguid": 5134,
      "Ġbecoming": 5135,
      "Ġepisode": 5136,
      "ements": 5137,
      "cks": 5138,
      "Ġolder": 5139,
      "ĠSentence": 5140,
      "sole": 5141,
      "Ġneighbor": 5142,
      "Ġbillion": 5143,
      "Ġworkers": 5144,
      "Ġtopic": 5145,
      "ĠNews": 5146,
      "Ġartists": 5147,
      "Ġsmart": 5148,
      "Ġwhom": 5149,
      "win": 5150,
      "Ġmist": 5151,
      "Ġforeign": 5152,
      "47": 5153,
      "Do": 5154,
      "Ġsport": 5155,
      "Ġintroduced": 5156,
      "ĠRoyal": 5157,
      "ctors": 5158,
      "etry": 5159,
      "centr": 5160,
      "ĠIts": 5161,
      "Ġserious": 5162,
      "ĠCO": 5163,
      "Ġprison": 5164,
      "Ġcontinues": 5165,
      "ĠVict": 5166,
      "Ġopposite": 5167,
      "While": 5168,
      "Ġahead": 5169,
      "ously": 5170,
      "Ġtalking": 5171,
      "ĠRad": 5172,
      "Ġmicro": 5173,
      "Ġbottom": 5174,
      "ĠStar": 5175,
      "respond": 5176,
      "ĠKingdom": 5177,
      "reme": 5178,
      "Ġbuildings": 5179,
      "Ġrelationships": 5180,
      "ishes": 5181,
      "ĠYes": 5182,
      "what": 5183,
      "uro": 5184,
      "ĠFacebook": 5185,
      "bed": 5186,
      "Ġstarts": 5187,
      "Ġrepe": 5188,
      "Ġplants": 5189,
      "Ġsand": 5190,
      "66": 5191,
      "Ġvisual": 5192,
      "Ġfinish": 5193,
      "ĠĠĠĠĠĠĠĠĠ": 5194,
      "å¯": 5195,
      "ĠHel": 5196,
      "ĠChicago": 5197,
      "ÑĢÐµ": 5198,
      "fig": 5199,
      "ĠDemocr": 5200,
      "usion": 5201,
      "Ġtruly": 5202,
      "Ġbrow": 5203,
      "aming": 5204,
      "ĠCanadian": 5205,
      "ucle": 5206,
      "æĢ": 5207,
      "Ġsecure": 5208,
      "Ġrat": 5209,
      "illa": 5210,
      "Ġbill": 5211,
      "Ġ1999": 5212,
      "Ġcreative": 5213,
      "UT": 5214,
      "Ġmodify": 5215,
      "Ġstuff": 5216,
      "CH": 5217,
      "Ġfilled": 5218,
      "ĠAtl": 5219,
      "Ġanti": 5220,
      "Ind": 5221,
      "Ġcars": 5222,
      "Ġ90": 5223,
      "Ġtesting": 5224,
      "ĠDec": 5225,
      "Ġreviews": 5226,
      "ingu": 5227,
      "rad": 5228,
      "asks": 5229,
      "Tail": 5230,
      "Ġshape": 5231,
      "Ġfish": 5232,
      "py": 5233,
      "ĠKh": 5234,
      "Ġcoast": 5235,
      "Ġdriving": 5236,
      "Ġdoub": 5237,
      "ĠSom": 5238,
      "ĠMill": 5239,
      "Ġhappens": 5240,
      "uled": 5241,
      "ĠAmazon": 5242,
      "ĠEv": 5243,
      "Ġloved": 5244,
      "ä¾": 5245,
      "æľī": 5246,
      "java": 5247,
      "Ð±": 5248,
      "Ġbrain": 5249,
      "ĠSaturday": 5250,
      "Ġroute": 5251,
      "ĠSu": 5252,
      "ĠEven": 5253,
      "amin": 5254,
      "pass": 5255,
      "soft": 5256,
      "Ġpartner": 5257,
      "bour": 5258,
      "Ġheight": 5259,
      "Ġwinning": 5260,
      "road": 5261,
      "Ġlisted": 5262,
      "Ġincome": 5263,
      "Ġbrief": 5264,
      "['": 5265,
      "31": 5266,
      "Ġtrend": 5267,
      "abilities": 5268,
      "entially": 5269,
      "Ġdespite": 5270,
      "Ġgarden": 5271,
      "Ġnumerous": 5272,
      "orry": 5273,
      "å¾": 5274,
      "Ġdiscover": 5275,
      "acks": 5276,
      "Ġcommunities": 5277,
      "Ġupdated": 5278,
      "term": 5279,
      "ĠJim": 5280,
      "asy": 5281,
      "uries": 5282,
      "Ġprotection": 5283,
      "Ġinfluence": 5284,
      "Ġfurn": 5285,
      "standing": 5286,
      "Please": 5287,
      "orter": 5288,
      "clusion": 5289,
      "Ġlearned": 5290,
      "ĠBig": 5291,
      "Ġfailed": 5292,
      "Ġemp": 5293,
      "ĠTwo": 5294,
      "è¦ģ": 5295,
      "test": 5296,
      "ĠPersonZ": 5297,
      "éĩ": 5298,
      "Ġleague": 5299,
      "Ġ\"___": 5300,
      "cher": 5301,
      "Ġ\"___\",": 5302,
      "Ġpictures": 5303,
      "###": 5304,
      "ĠPlay": 5305,
      "ĠSociety": 5306,
      "iency": 5307,
      "iture": 5308,
      "ĠItalian": 5309,
      "ĠProgram": 5310,
      "500": 5311,
      "inding": 5312,
      "hab": 5313,
      "Ġgrant": 5314,
      "ĠServices": 5315,
      "ĠVirgin": 5316,
      "ĠResearch": 5317,
      "ĠLove": 5318,
      "pm": 5319,
      "ĠDesign": 5320,
      "och": 5321,
      "orrow": 5322,
      "Ġkept": 5323,
      "Ġmonitor": 5324,
      "CC": 5325,
      "hent": 5326,
      "itt": 5327,
      "Ġdress": 5328,
      "ĠReturn": 5329,
      "Ġsty": 5330,
      "Ġcompre": 5331,
      "Ġhyp": 5332,
      "Ġapplied": 5333,
      "Ġmaximum": 5334,
      "Ġpun": 5335,
      "BA": 5336,
      "istor": 5337,
      "Ġscored": 5338,
      "oving": 5339,
      "ĠBank": 5340,
      "Ġtwice": 5341,
      "ĠWood": 5342,
      "Ġles": 5343,
      "Ġmunicip": 5344,
      "oves": 5345,
      "ĠFree": 5346,
      "Don": 5347,
      "istance": 5348,
      "rim": 5349,
      "Ġcities": 5350,
      "Ġ70": 5351,
      "Ġrise": 5352,
      "Ġremaining": 5353,
      "atin": 5354,
      "ĠYear": 5355,
      "Ġcolors": 5356,
      "Ġfab": 5357,
      "Ġmotor": 5358,
      "reland": 5359,
      "ĠMod": 5360,
      "ĠNOT": 5361,
      "Ġoperating": 5362,
      "ĠOpen": 5363,
      "ĠBoard": 5364,
      "Ġtro": 5365,
      "phone": 5366,
      "Ġconnected": 5367,
      "Ġnotice": 5368,
      "Ġappearance": 5369,
      "Ġdriver": 5370,
      "Ã¨": 5371,
      "can": 5372,
      "Ġallowing": 5373,
      "ĠCharl": 5374,
      "Ġalt": 5375,
      "Ġadvanced": 5376,
      "Ġbreat": 5377,
      "othing": 5378,
      "Ġriver": 5379,
      "ĠEr": 5380,
      "Ġrich": 5381,
      "Ġinterpre": 5382,
      "ĠCommission": 5383,
      "Ġ45": 5384,
      "MS": 5385,
      "Ġconcentr": 5386,
      "ootball": 5387,
      "Ġuns": 5388,
      "Ġhomes": 5389,
      "Ġdeveloping": 5390,
      "Ġlaun": 5391,
      "ÑĤÐµ": 5392,
      "Ġpractices": 5393,
      "Ġrare": 5394,
      "Ġsession": 5395,
      "Sentence": 5396,
      "Ġsounds": 5397,
      "æĪĳ": 5398,
      "Ġaim": 5399,
      "akers": 5400,
      "osis": 5401,
      "ella": 5402,
      "ĠDivision": 5403,
      "ĠWindows": 5404,
      "Ġandroid": 5405,
      "Ġapproximately": 5406,
      "Ġmostly": 5407,
      "å¸": 5408,
      "aciÃ³n": 5409,
      "ëĬ": 5410,
      "ĠPublic": 5411,
      "01": 5412,
      "kins": 5413,
      "Ġdanger": 5414,
      "85": 5415,
      "Ġcitiz": 5416,
      "Ġhelping": 5417,
      "Ġfunctions": 5418,
      "ĠBre": 5419,
      "Ġearth": 5420,
      "ĠUnder": 5421,
      "Ġdoctor": 5422,
      "ĠInternet": 5423,
      "Ġnone": 5424,
      "å¹": 5425,
      "è§": 5426,
      "oken": 5427,
      "Ġafford": 5428,
      "ensus": 5429,
      "ola": 5430,
      "ĠRichard": 5431,
      "acement": 5432,
      "atre": 5433,
      "èĢ": 5434,
      "Ġfacts": 5435,
      "Ġfear": 5436,
      "Ġmanaged": 5437,
      "ëĭ¤": 5438,
      "Ġtechnical": 5439,
      "Ġmanufacture": 5440,
      "Ġimportance": 5441,
      "ĠSil": 5442,
      "Ġspeech": 5443,
      "Ġfell": 5444,
      "Ġforced": 5445,
      "NA": 5446,
      "Ġplus": 5447,
      "Ġalgor": 5448,
      "amily": 5449,
      "Ġcorrespond": 5450,
      "çĽ": 5451,
      "Ġadvantage": 5452,
      "cles": 5453,
      "Ġ[#": 5454,
      "IL": 5455,
      "Ġcoord": 5456,
      "Ġmaybe": 5457,
      "Ġpoll": 5458,
      "ĠCharles": 5459,
      "itness": 5460,
      "Ġtrees": 5461,
      "Ġdesire": 5462,
      "ĠPeople": 5463,
      "ithmetic": 5464,
      "Ġeconomy": 5465,
      "ĠCOM": 5466,
      "Ġdetailed": 5467,
      "Ġremoved": 5468,
      "Ġtruth": 5469,
      "Ġbalance": 5470,
      "astern": 5471,
      "olk": 5472,
      "Ġstandards": 5473,
      "Ġlived": 5474,
      "Ġselection": 5475,
      "Ġreaction": 5476,
      "Bl": 5477,
      "Ġbeat": 5478,
      "Ġparties": 5479,
      "Ġ1980": 5480,
      "Ġfounded": 5481,
      "unte": 5482,
      "Ġdestroy": 5483,
      "met": 5484,
      "Ġaccident": 5485,
      "ĠQuest": 5486,
      "Ġturning": 5487,
      "Ġdelivery": 5488,
      "Ġarrang": 5489,
      "69": 5490,
      "Ġstick": 5491,
      "Ġestate": 5492,
      "Ġ32": 5493,
      "Ġsynt": 5494,
      "host": 5495,
      "Ġarrest": 5496,
      "ĠJesus": 5497,
      "Ġerr": 5498,
      "ĠData": 5499,
      "Ġdiscovered": 5500,
      "Ġasks": 5501,
      "Of": 5502,
      "ĠWork": 5503,
      "èĥ½": 5504,
      "Ĥ¬": 5505,
      "Ġmeant": 5506,
      "íķĺ": 5507,
      "ĠOffice": 5508,
      "Ġcorner": 5509,
      "Ġfields": 5510,
      "Ġsquare": 5511,
      "Ġpolic": 5512,
      "first": 5513,
      "Ġfans": 5514,
      "yan": 5515,
      "Ġdim": 5516,
      "ĠÐ´": 5517,
      "ĠLord": 5518,
      "Ġcrowd": 5519,
      "Ġexcept": 5520,
      "Ġadvance": 5521,
      "Ġ==": 5522,
      "enses": 5523,
      "Ġclin": 5524,
      "ĠBur": 5525,
      "Ġgone": 5526,
      "ĠCap": 5527,
      "Ġ1998": 5528,
      "Ġclaims": 5529,
      "Ġattacks": 5530,
      "Ġmajority": 5531,
      "left": 5532,
      "Ġreb": 5533,
      "Ġwhatever": 5534,
      "Ġpal": 5535,
      "Ġflex": 5536,
      "aven": 5537,
      "Ġagree": 5538,
      "Ġ>": 5539,
      "ĠMain": 5540,
      "ailed": 5541,
      "ĠScience": 5542,
      "uesday": 5543,
      "Ġtend": 5544,
      "pective": 5545,
      "ä¼": 5546,
      "Ġviews": 5547,
      "åĮ": 5548,
      "ĠWho": 5549,
      "ura": 5550,
      "some": 5551,
      "åĢ": 5552,
      "Ġbatter": 5553,
      "Ġbound": 5554,
      "Ġkid": 5555,
      "Ġdefinitely": 5556,
      "ĠCongress": 5557,
      "====": 5558,
      "People": 5559,
      "ĠSpanish": 5560,
      "Ġsustain": 5561,
      "alls": 5562,
      "Ġweekend": 5563,
      "Ġrestrict": 5564,
      "Ġjobs": 5565,
      "Ġpayment": 5566,
      "De": 5567,
      "Ġentertain": 5568,
      "uan": 5569,
      "hr": 5570,
      "ĠMuseum": 5571,
      "Ġsusp": 5572,
      "Ġseemed": 5573,
      "----------------": 5574,
      "ĠStr": 5575,
      "Ġpush": 5576,
      "arsh": 5577,
      "itors": 5578,
      "Ġraised": 5579,
      "Ġsolid": 5580,
      "isation": 5581,
      "68": 5582,
      "Ġscale": 5583,
      "cell": 5584,
      "Ġweap": 5585,
      "âĢ¢": 5586,
      "isco": 5587,
      "These": 5588,
      "Qu": 5589,
      "ĠVe": 5590,
      "Ġresol": 5591,
      "Ġpul": 5592,
      "Ġcertainly": 5593,
      "Ġpassion": 5594,
      "ê³": 5595,
      "ĠLife": 5596,
      "osen": 5597,
      "mosp": 5598,
      "Ġaccom": 5599,
      "ĠMass": 5600,
      "icians": 5601,
      "Ġcapacity": 5602,
      "Ġfant": 5603,
      "Ġ2020": 5604,
      "Ġresidents": 5605,
      "asketball": 5606,
      "FL": 5607,
      "Ġmanner": 5608,
      "cial": 5609,
      "apers": 5610,
      "EC": 5611,
      "abeth": 5612,
      "Ġsister": 5613,
      "gs": 5614,
      "Ġminor": 5615,
      "Ġwaiting": 5616,
      "Ġgirls": 5617,
      "ÙĦ": 5618,
      "igan": 5619,
      "Ġdiet": 5620,
      "coming": 5621,
      "ĠMicro": 5622,
      "Ġpackage": 5623,
      "ĠAccording": 5624,
      "Ġunf": 5625,
      "ĠForm": 5626,
      "iance": 5627,
      "oles": 5628,
      "tters": 5629,
      "ua": 5630,
      "Ġmusical": 5631,
      "ĠSet": 5632,
      "Ġcards": 5633,
      "Int": 5634,
      "ĠTheir": 5635,
      "Ġseeing": 5636,
      "ĠTD": 5637,
      "Ñİ": 5638,
      "Ġstreets": 5639,
      "icious": 5640,
      "Ġprepar": 5641,
      "Ġsweet": 5642,
      "ĠSar": 5643,
      "Ġlock": 5644,
      "ĠShort": 5645,
      "ervation": 5646,
      "Ġscientific": 5647,
      "ĠPlan": 5648,
      "Ġquery": 5649,
      "ĠWhy": 5650,
      "Ġoriginally": 5651,
      "ĠIS": 5652,
      "History": 5653,
      "Ġexpression": 5654,
      "Ġpor": 5655,
      "ĠPenn": 5656,
      "á»": 5657,
      "ĠCommit": 5658,
      "ĠÐ¼": 5659,
      "Ġpreferred": 5660,
      "Ġwedding": 5661,
      "istered": 5662,
      "Ġegg": 5663,
      "Ġcritic": 5664,
      "arp": 5665,
      "anguages": 5666,
      "æ³": 5667,
      "Ġsenior": 5668,
      "Ġancient": 5669,
      "Ġtherefore": 5670,
      "Ġhttp": 5671,
      "Ġchemical": 5672,
      "Ġdedicated": 5673,
      "ums": 5674,
      "eline": 5675,
      "Ġwear": 5676,
      "ĠVictor": 5677,
      "Ġdance": 5678,
      "ĠHam": 5679,
      "ĠSupp": 5680,
      "Ġdepending": 5681,
      "ĠParis": 5682,
      "Ð¾Ð»": 5683,
      "ĠAngeles": 5684,
      "door": 5685,
      "Ġhorse": 5686,
      "Ġagreement": 5687,
      "ca": 5688,
      "Ġwalking": 5689,
      "nic": 5690,
      "uty": 5691,
      "Ġteacher": 5692,
      "Ġtrib": 5693,
      "Ġran": 5694,
      "æī": 5695,
      "Ġ500": 5696,
      "ĠIreland": 5697,
      "Ġrain": 5698,
      "Te": 5699,
      "lig": 5700,
      "|-": 5701,
      "Ġdocuments": 5702,
      "Ġvolume": 5703,
      "EM": 5704,
      "edom": 5705,
      "Ġdeaths": 5706,
      "Ġentity": 5707,
      "Ġvariable": 5708,
      "Ġdebut": 5709,
      "ĠCD": 5710,
      "ani": 5711,
      "html": 5712,
      "Ġposted": 5713,
      "Ġfeatured": 5714,
      "Ġvan": 5715,
      "eder": 5716,
      "Ġherself": 5717,
      "olit": 5718,
      "IP": 5719,
      "ĠDen": 5720,
      "æĹ": 5721,
      "Ġevening": 5722,
      "ĠAM": 5723,
      "Ġschedule": 5724,
      "åĩ": 5725,
      "Bu": 5726,
      "Ġemotional": 5727,
      "ĠKn": 5728,
      "char": 5729,
      "liament": 5730,
      "Ã§": 5731,
      "User": 5732,
      "Ġalternative": 5733,
      "Ġthank": 5734,
      "Ġupp": 5735,
      "uations": 5736,
      "Ġleads": 5737,
      "ructure": 5738,
      "ĠAcademy": 5739,
      "ocket": 5740,
      "Ġcomprehens": 5741,
      "Type": 5742,
      "Ġdirected": 5743,
      "oto": 5744,
      "enced": 5745,
      "azz": 5746,
      "Ġwonderful": 5747,
      "ĠAtt": 5748,
      "osing": 5749,
      "Ġprocesses": 5750,
      "Ġintellig": 5751,
      "Ġfaith": 5752,
      "ĠTop": 5753,
      "ĠBob": 5754,
      "ifts": 5755,
      "Ġassum": 5756,
      "xy": 5757,
      "Ġfif": 5758,
      "ĠProduct": 5759,
      "icing": 5760,
      "Ġpros": 5761,
      "Ġcomfortable": 5762,
      "tenance": 5763,
      "ĠAdditionally": 5764,
      "Ġtom": 5765,
      "Ġexception": 5766,
      "ĠLu": 5767,
      "yer": 5768,
      "Or": 5769,
      "iner": 5770,
      "ĠEducation": 5771,
      "ĠSand": 5772,
      "Ġstudio": 5773,
      "Ġcombination": 5774,
      "Ġcrew": 5775,
      "raction": 5776,
      "Ġkm": 5777,
      "adium": 5778,
      "Ġcaught": 5779,
      "eless": 5780,
      "ÐµÑĤ": 5781,
      "Ġbag": 5782,
      "Ġsnow": 5783,
      "ĠTrump": 5784,
      "Ġperhaps": 5785,
      "ĠÑ": 5786,
      "anda": 5787,
      "Ġvoc": 5788,
      "ĠMo": 5789,
      "ĠĠĠĠĠĠĠĠĠĠĠĠĠĠĠĠĠĠĠĠĠĠĠĠĠĠĠĠĠĠĠĠ": 5790,
      "ëĬĶ": 5791,
      "ãģĻ": 5792,
      "Ġslightly": 5793,
      "Ġdiss": 5794,
      "Ġstanding": 5795,
      "Ġlaunch": 5796,
      "Ġcompar": 5797,
      "bar": 5798,
      "mail": 5799,
      "ivate": 5800,
      "ĠTim": 5801,
      "Ġremained": 5802,
      "ayout": 5803,
      "Ġlots": 5804,
      "Ġbought": 5805,
      "Ġ1992": 5806,
      "izabeth": 5807,
      "Ġarticles": 5808,
      "Get": 5809,
      "cos": 5810,
      "value": 5811,
      "Ġwinter": 5812,
      "ĠOrgan": 5813,
      "Ġdivid": 5814,
      "Ġcalling": 5815,
      "ĠOld": 5816,
      "Ġnearby": 5817,
      "ĠWhere": 5818,
      "Ġsupported": 5819,
      "Ġspring": 5820,
      "ucky": 5821,
      "Ġcomponents": 5822,
      "Ġasking": 5823,
      "ĠEngine": 5824,
      "Ġborder": 5825,
      "Some": 5826,
      "Ġguarant": 5827,
      "ĠMexico": 5828,
      "Ġseat": 5829,
      "hand": 5830,
      "ĠØ": 5831,
      "ĠPower": 5832,
      "urban": 5833,
      "Ġatmosp": 5834,
      "how": 5835,
      "Ġtables": 5836,
      "Ġtheory": 5837,
      "Ġthanks": 5838,
      "ĠMinister": 5839,
      "Ġprocessing": 5840,
      "Ġsym": 5841,
      "user": 5842,
      "ĠRev": 5843,
      "âĢĿ,": 5844,
      "andon": 5845,
      "Ġchanging": 5846,
      "Ġnotes": 5847,
      "ĠCatholic": 5848,
      "ĠRecords": 5849,
      "fficient": 5850,
      "Ġfacilities": 5851,
      "Ġrelax": 5852,
      "Ġsched": 5853,
      "vention": 5854,
      "Pr": 5855,
      "ĠGovernment": 5856,
      "aud": 5857,
      "Ġteaching": 5858,
      "Ġbroken": 5859,
      "Ġserving": 5860,
      "Ġideal": 5861,
      "Ġenvironmental": 5862,
      "Ġ1970": 5863,
      "Ġsettle": 5864,
      "ĠWater": 5865,
      "pected": 5866,
      "ĠBlue": 5867,
      "Ġconference": 5868,
      "ÑĤÐ¾": 5869,
      "ednes": 5870,
      "Ġflo": 5871,
      "ĠManagement": 5872,
      "ounter": 5873,
      "Ġdepartment": 5874,
      "ĠĠĠĠĠĠ": 5875,
      "Ġcomments": 5876,
      "Ġexperiment": 5877,
      "ĠSecond": 5878,
      "aked": 5879,
      "Ġholding": 5880,
      "Ġhumans": 5881,
      "Ġfocused": 5882,
      "Ġveget": 5883,
      "Ġaccompl": 5884,
      "Ġofficer": 5885,
      "Ġproperly": 5886,
      "Ġlegisl": 5887,
      "Ġvoid": 5888,
      "ursday": 5889,
      "Ġsector": 5890,
      "Ġmental": 5891,
      "ĠLong": 5892,
      "Ġflav": 5893,
      "utch": 5894,
      "Ġcauses": 5895,
      "ĠCast": 5896,
      "ĠChild": 5897,
      "ĠIT": 5898,
      "Acc": 5899,
      "Ġschol": 5900,
      "related": 5901,
      "Ġexchange": 5902,
      "Ġnumerical": 5903,
      "Ġcentre": 5904,
      "ĠSqu": 5905,
      "Ġshowed": 5906,
      "dro": 5907,
      "Ġsupporting": 5908,
      "allery": 5909,
      "apes": 5910,
      "ĠActions": 5911,
      "ãģ«": 5912,
      "atus": 5913,
      "ora": 5914,
      "ĠWhe": 5915,
      "Ġstated": 5916,
      "position": 5917,
      "ĠHenry": 5918,
      "Ġfashion": 5919,
      "Ġreligious": 5920,
      "Ġuniversity": 5921,
      "Ġhistorical": 5922,
      "estic": 5923,
      "den": 5924,
      "ĠTuesday": 5925,
      "Ġdivers": 5926,
      "59": 5927,
      "Ġdra": 5928,
      "Ġcombinations": 5929,
      "after": 5930,
      "Ġcloud": 5931,
      "embly": 5932,
      "eper": 5933,
      "grad": 5934,
      "Ġstars": 5935,
      "Ġblocks": 5936,
      "ĠVer": 5937,
      "Ġshowing": 5938,
      "Ġ1997": 5939,
      "ĠQuestions": 5940,
      "Ġdecre": 5941,
      "ĠTest": 5942,
      "ĠProject": 5943,
      "å·": 5944,
      "pty": 5945,
      "var": 5946,
      "Ġcart": 5947,
      "odies": 5948,
      "Ġrandom": 5949,
      "idential": 5950,
      "Ð³": 5951,
      "ĠElect": 5952,
      "ĠUSA": 5953,
      "df": 5954,
      "Answer": 5955,
      "Ġphilos": 5956,
      "ÑĤÑĮ": 5957,
      "rier": 5958,
      "ilding": 5959,
      "ĠAS": 5960,
      "isher": 5961,
      "ĠHuman": 5962,
      "Ġcontem": 5963,
      "iano": 5964,
      "Ġterrit": 5965,
      "Ġbond": 5966,
      "ĠBet": 5967,
      "Ġvision": 5968,
      "ĠStep": 5969,
      "Act": 5970,
      "Us": 5971,
      "ĠRussia": 5972,
      "ëĭĪ": 5973,
      "gency": 5974,
      "lication": 5975,
      "Ġven": 5976,
      "Ġdecisions": 5977,
      "Ġbeach": 5978,
      "Ġvote": 5979,
      "ĠValley": 5980,
      "ĠIll": 5981,
      "Ġknows": 5982,
      "Ġ1996": 5983,
      "Ġmulti": 5984,
      "Ġmur": 5985,
      "ĠSee": 5986,
      "RA": 5987,
      "Ġvary": 5988,
      "ĠScot": 5989,
      "Ġcomponent": 5990,
      "Ġhref": 5991,
      "Ġprepared": 5992,
      "ìĿĦ": 5993,
      "Ġarithmetic": 5994,
      "ĠAPI": 5995,
      "ĠCommittee": 5996,
      "thur": 5997,
      "Ġtips": 5998,
      "ĠHT": 5999,
      "Ġseconds": 6000,
      "Ġign": 6001,
      "BS": 6002,
      "Ġu": 6003,
      "ader": 6004,
      "Ġofficials": 6005,
      "ĠMarket": 6006,
      "Ġloan": 6007,
      "ĠEmp": 6008,
      "åı¯ä»¥": 6009,
      "mod": 6010,
      "ali": 6011,
      "aped": 6012,
      "ship": 6013,
      "ĠVis": 6014,
      "ĠCat": 6015,
      "ä¿": 6016,
      "ÃŃa": 6017,
      "Ġarrived": 6018,
      "ker": 6019,
      "Ġspect": 6020,
      "Ġsyn": 6021,
      "ä¸į": 6022,
      "Ġfriendly": 6023,
      "57": 6024,
      "ipl": 6025,
      "Ġbra": 6026,
      "ĠMax": 6027,
      "oys": 6028,
      "alle": 6029,
      "ented": 6030,
      "Ġtoward": 6031,
      "Ġsharing": 6032,
      "ĠString": 6033,
      "ä¸ª": 6034,
      "Ġconcerns": 6035,
      "ĠMike": 6036,
      "type": 6037,
      "oration": 6038,
      "ìĦ": 6039,
      "Ġends": 6040,
      "89": 6041,
      "Ġfan": 6042,
      "Ġalbums": 6043,
      "ĠCard": 6044,
      "Ġconclud": 6045,
      "Ġvir": 6046,
      "ĠApple": 6047,
      "ĠFire": 6048,
      "Ġlabor": 6049,
      "hop": 6050,
      "Ġminimum": 6051,
      "Ġingred": 6052,
      "ĠProfess": 6053,
      "ĠWall": 6054,
      "\";": 6055,
      "icit": 6056,
      "Ġexercise": 6057,
      "ĠDown": 6058,
      "ĠOper": 6059,
      ".'": 6060,
      "input": 6061,
      "Ġban": 6062,
      "Ġflight": 6063,
      "ideo": 6064,
      "phas": 6065,
      "osure": 6066,
      "rees": 6067,
      "43": 6068,
      "Ġflat": 6069,
      "ednesday": 6070,
      "Ġcombined": 6071,
      "Ġsitting": 6072,
      "coh": 6073,
      "Ġmarriage": 6074,
      "Ġtheme": 6075,
      "äºĨ": 6076,
      "Ġlandsc": 6077,
      "Ã±": 6078,
      "Ġowned": 6079,
      "Ġresulting": 6080,
      "Ġidentity": 6081,
      "Ġbedroom": 6082,
      "ĠTimes": 6083,
      "Ġmel": 6084,
      "va": 6085,
      "ĠIns": 6086,
      "life": 6087,
      "æŀ": 6088,
      "Ġdefined": 6089,
      "Ġsuppl": 6090,
      "ersey": 6091,
      "Ġwatching": 6092,
      "Ð½Ñĭ": 6093,
      "çŃ": 6094,
      "æĿ": 6095,
      "uable": 6096,
      "ĠSocial": 6097,
      "kin": 6098,
      "Ġeq": 6099,
      "Ġwine": 6100,
      "Ġleadership": 6101,
      "Ġfort": 6102,
      "äºº": 6103,
      "ĠDirector": 6104,
      "Ġincred": 6105,
      "ĠMartin": 6106,
      "ãĤĴ": 6107,
      "ĠItaly": 6108,
      "ĠThanks": 6109,
      "Ġstrategies": 6110,
      "Ġretail": 6111,
      "aks": 6112,
      "è¡Į": 6113,
      "Ġconver": 6114,
      "ĠHy": 6115,
      "rical": 6116,
      "ĠJac": 6117,
      "bur": 6118,
      "Fil": 6119,
      "ĠBecause": 6120,
      "Ġshopping": 6121,
      "Ġrepair": 6122,
      "pat": 6123,
      "Ġescape": 6124,
      "ĠEll": 6125,
      "¦Ĥ": 6126,
      "orough": 6127,
      "Ġreplace": 6128,
      "EL": 6129,
      "Ġdefault": 6130,
      "Ġvictory": 6131,
      "Ġbiggest": 6132,
      "Ġrh": 6133,
      "Ġstations": 6134,
      "ifications": 6135,
      "cious": 6136,
      "ìĿ´": 6137,
      "Ġmeets": 6138,
      "Ġbroadcast": 6139,
      "ĠJackson": 6140,
      "];": 6141,
      "46": 6142,
      "uce": 6143,
      "ĠNote": 6144,
      "Ġce": 6145,
      "Ġdepart": 6146,
      "gment": 6147,
      "Ġkeeping": 6148,
      "Ġforget": 6149,
      "ĠIsl": 6150,
      "which": 6151,
      "ortunately": 6152,
      "Ġtele": 6153,
      "Ġgather": 6154,
      "jective": 6155,
      "Ġdetermined": 6156,
      "Ġbright": 6157,
      "Ġpolicies": 6158,
      "ealand": 6159,
      "equ": 6160,
      "Ġhall": 6161,
      "ograp": 6162,
      "Ġclimate": 6163,
      "clusive": 6164,
      "Ġmut": 6165,
      "Ġinjury": 6166,
      "Ġtrial": 6167,
      "da": 6168,
      "Ġvideos": 6169,
      "ĠOffic": 6170,
      "Ġlocations": 6171,
      "ĠJul": 6172,
      "erman": 6173,
      "walk": 6174,
      "Ġnucle": 6175,
      "ĠSecret": 6176,
      "Ġchief": 6177,
      "ĠMa": 6178,
      "Ġnine": 6179,
      "Ġcore": 6180,
      "water": 6181,
      "Ġnoted": 6182,
      "Ġfuel": 6183,
      "arrow": 6184,
      "ĠPC": 6185,
      "ĠVirginia": 6186,
      "Ġsmooth": 6187,
      "Ġaren": 6188,
      "IV": 6189,
      "Serv": 6190,
      "Ġwaste": 6191,
      "Ġproceed": 6192,
      "Ġintended": 6193,
      "Ġtasks": 6194,
      "Ġcrim": 6195,
      "ta": 6196,
      "ĠTeam": 6197,
      "Ġdistinct": 6198,
      "Ġsplit": 6199,
      "Ġcompr": 6200,
      "Ġaircraft": 6201,
      "Ġinspiration": 6202,
      "05": 6203,
      "Ġinstalled": 6204,
      "RL": 6205,
      "87": 6206,
      "ello": 6207,
      "ĠJoe": 6208,
      "Ġcarried": 6209,
      "ĠCare": 6210,
      "DA": 6211,
      "Ġdistribution": 6212,
      "onym": 6213,
      "Ġorders": 6214,
      "ĠReview": 6215,
      "Ġcausing": 6216,
      "Ġproposed": 6217,
      "è¨": 6218,
      "roduct": 6219,
      "Ãº": 6220,
      "ĠZealand": 6221,
      "FER": 6222,
      "çī": 6223,
      "ĠJud": 6224,
      "arian": 6225,
      "Ġdinner": 6226,
      "real": 6227,
      "inating": 6228,
      "Ġbathroom": 6229,
      "Rec": 6230,
      "onom": 6231,
      "éģ": 6232,
      "Ġbelieved": 6233,
      "Ġholds": 6234,
      "Ġadministration": 6235,
      "ĠPan": 6236,
      "ìł": 6237,
      "ĠDev": 6238,
      "CO": 6239,
      "John": 6240,
      "ĠSQL": 6241,
      "Ġgrammatically": 6242,
      "going": 6243,
      "using": 6244,
      "ĠHaw": 6245,
      "ĠPac": 6246,
      "æŃ": 6247,
      "Ġfunds": 6248,
      "string": 6249,
      "count": 6250,
      "sm": 6251,
      "sub": 6252,
      "Form": 6253,
      "etime": 6254,
      "Ġsatisf": 6255,
      "dden": 6256,
      "Ã©s": 6257,
      "Ġpromote": 6258,
      "Ġrecip": 6259,
      "Ġinteger": 6260,
      "Ġcounty": 6261,
      "ban": 6262,
      "Ġconcepts": 6263,
      "Ġcategories": 6264,
      "ĠArts": 6265,
      "Ġmeasures": 6266,
      "Ġnewsp": 6267,
      "Ġeditor": 6268,
      "public": 6269,
      "?,": 6270,
      "Ġlose": 6271,
      "ĠTem": 6272,
      "ĠBoth": 6273,
      "?</": 6274,
      "second": 6275,
      "Ġdivision": 6276,
      "outs": 6277,
      "ye": 6278,
      "Ġlaunched": 6279,
      "Ġswim": 6280,
      "Ġselling": 6281,
      "gent": 6282,
      "Ġsoul": 6283,
      "Ob": 6284,
      "ĠPrem": 6285,
      "Ġconven": 6286,
      "Ġsignal": 6287,
      "Ã¢": 6288,
      "ushed": 6289,
      "ĠLuc": 6290,
      "Ġhelpful": 6291,
      "Ġtrigger": 6292,
      "FC": 6293,
      "Ġride": 6294,
      "ĠTHE": 6295,
      "Ġelim": 6296,
      "Ġobv": 6297,
      "Ġtun": 6298,
      "ĠChief": 6299,
      "ads": 6300,
      "Ġmessages": 6301,
      "essions": 6302,
      "Ġdiagn": 6303,
      "Ġmagn": 6304,
      "ĠGeorg": 6305,
      "ĠMot": 6306,
      "Ġswitch": 6307,
      "Ġexperts": 6308,
      "},": 6309,
      "ĠArab": 6310,
      "rid": 6311,
      "ĠFact": 6312,
      "onent": 6313,
      "asp": 6314,
      "ĠGames": 6315,
      "Ġedge": 6316,
      "42": 6317,
      "function": 6318,
      "Ġcere": 6319,
      "Ġroof": 6320,
      "ulf": 6321,
      "fast": 6322,
      "Ġjoint": 6323,
      "41": 6324,
      "des": 6325,
      "apped": 6326,
      "IA": 6327,
      "ensions": 6328,
      "Ġsteel": 6329,
      "63": 6330,
      "Ġmort": 6331,
      "cho": 6332,
      "opy": 6333,
      "icken": 6334,
      "ĠShow": 6335,
      "arl": 6336,
      "Am": 6337,
      "Ġthoughts": 6338,
      "Ġstone": 6339,
      "Ġsudden": 6340,
      "Ġsides": 6341,
      "ĠTen": 6342,
      "Ġrepet": 6343,
      "Ġclearly": 6344,
      "razil": 6345,
      "Ġarmy": 6346,
      "Ġexpensive": 6347,
      "Ġelected": 6348,
      "ĠBas": 6349,
      "Ġ1995": 6350,
      "æł": 6351,
      "Ġbot": 6352,
      "ican": 6353,
      "Ġtries": 6354,
      "ockey": 6355,
      "ĠSports": 6356,
      "Ġguess": 6357,
      "inet": 6358,
      "oung": 6359,
      "Ġfeedback": 6360,
      "ĠCur": 6361,
      "illy": 6362,
      "under": 6363,
      "oom": 6364,
      "idth": 6365,
      "Ġimplementation": 6366,
      "iot": 6367,
      "Ġrevealed": 6368,
      "Ġhidden": 6369,
      "oston": 6370,
      "ommod": 6371,
      "ĠST": 6372,
      "Ġcapable": 6373,
      "Ed": 6374,
      "abled": 6375,
      "ensity": 6376,
      "path": 6377,
      "ĠMer": 6378,
      "fo": 6379,
      "ĠCarolina": 6380,
      "Ġtrail": 6381,
      "oviet": 6382,
      "ns": 6383,
      "ĠDevelopment": 6384,
      "ĠAsia": 6385,
      "ëĭĪëĭ¤": 6386,
      "ĠDisc": 6387,
      "Ġconcert": 6388,
      "Ġsolve": 6389,
      "Ð¾Ð¼": 6390,
      "poses": 6391,
      "Ġmir": 6392,
      "Ġassistance": 6393,
      "poration": 6394,
      "essage": 6395,
      "anges": 6396,
      "ĠOrder": 6397,
      "mond": 6398,
      "ĠEnter": 6399,
      "Ġfeels": 6400,
      "ĠRail": 6401,
      "ĠThursday": 6402,
      "zen": 6403,
      "ë¥": 6404,
      "Ġunable": 6405,
      "97": 6406,
      "Ġlisten": 6407,
      "Ġletters": 6408,
      "onic": 6409,
      "erved": 6410,
      "Ġvolunte": 6411,
      "rome": 6412,
      "Ġflag": 6413,
      "Ġagency": 6414,
      "Ġmole": 6415,
      "ĠId": 6416,
      "ĠSteve": 6417,
      "Ġacademic": 6418,
      "Ġcris": 6419,
      "oted": 6420,
      "ãĤĭ": 6421,
      "åĨ": 6422,
      "ĠJava": 6423,
      "ighter": 6424,
      "Ġclassic": 6425,
      "Ġintegers": 6426,
      "Ġpil": 6427,
      "Ġinstit": 6428,
      "unning": 6429,
      "ausible": 6430,
      "Ġshut": 6431,
      "Ġminute": 6432,
      "Ġofficers": 6433,
      "Ġthousands": 6434,
      "Let": 6435,
      "Ð½Ð¾": 6436,
      "Ġspending": 6437,
      "ĠFoundation": 6438,
      "rip": 6439,
      "ollowing": 6440,
      "PR": 6441,
      "Ġgeneration": 6442,
      "Ġcreation": 6443,
      "odd": 6444,
      "lete": 6445,
      "Ġsinger": 6446,
      "Ġnative": 6447,
      "Ġwilling": 6448,
      "96": 6449,
      "Ġstores": 6450,
      "ĠFort": 6451,
      "ih": 6452,
      "ansion": 6453,
      "Ġvehicles": 6454,
      "Ġeffectively": 6455,
      "illing": 6456,
      "Ġ1994": 6457,
      "Ab": 6458,
      "Ġbrings": 6459,
      "ĠOk": 6460,
      "Ġ(\"": 6461,
      "ĠJones": 6462,
      "bridge": 6463,
      "Dr": 6464,
      "ĠWilliams": 6465,
      "Ġrooms": 6466,
      "free": 6467,
      "ournament": 6468,
      "Ġcitizens": 6469,
      "Ġcandidate": 6470,
      "Ġspecifically": 6471,
      "Ġmountain": 6472,
      "ĠSeries": 6473,
      "æı": 6474,
      "Ġmaintenance": 6475,
      "Ġcrime": 6476,
      "Ġfeat": 6477,
      "Ġaffected": 6478,
      "Ġmode": 6479,
      "Ġappointed": 6480,
      "ilder": 6481,
      "jo": 6482,
      "const": 6483,
      "grade": 6484,
      "ulture": 6485,
      "pack": 6486,
      "heast": 6487,
      "However": 6488,
      "Ġthick": 6489,
      "ĠFootball": 6490,
      "Ġatmosphere": 6491,
      "ĠLeg": 6492,
      "Ġchannel": 6493,
      "Ġserves": 6494,
      "ĠHistory": 6495,
      "Ġinternal": 6496,
      "Ġmedium": 6497,
      "Ġappeal": 6498,
      "Ġmentions": 6499,
      "Ġdefense": 6500,
      "ĠJohnson": 6501,
      "alog": 6502,
      "Ġyouth": 6503,
      "Ġpasseng": 6504,
      "ĠColor": 6505,
      "ĠMcC": 6506,
      "Ġimproved": 6507,
      "Ġeating": 6508,
      "ambig": 6509,
      "alled": 6510,
      "ĠMur": 6511,
      "erring": 6512,
      "Ġenem": 6513,
      "ĠDi": 6514,
      "Ġfacility": 6515,
      "ÐµÐ½": 6516,
      "Ġcoverage": 6517,
      "Ġhousehold": 6518,
      "gery": 6519,
      "Ġemphas": 6520,
      "Â°": 6521,
      "Ġsurrounding": 6522,
      "Ġcarbon": 6523,
      "Ġswe": 6524,
      "Ġthread": 6525,
      "First": 6526,
      "ais": 6527,
      "ĠJeff": 6528,
      "ĠLee": 6529,
      "èĩ": 6530,
      "ĠChris": 6531,
      "ql": 6532,
      "color": 6533,
      "Ġtransform": 6534,
      "ĠWednesday": 6535,
      "Ġdraft": 6536,
      "ĠBarb": 6537,
      "Ġhaven": 6538,
      "ylvan": 6539,
      "Ġdescribe": 6540,
      "Ð»Ð¸": 6541,
      "Ġprogramming": 6542,
      "aren": 6543,
      "ATIONS": 6544,
      "ÑĢÐ¸": 6545,
      "izer": 6546,
      "umni": 6547,
      "Ġdating": 6548,
      "zy": 6549,
      "ĠPay": 6550,
      "po": 6551,
      "Ġnavigate": 6552,
      "ĠColumb": 6553,
      "pet": 6554,
      "Ġrot": 6555,
      "Ġplug": 6556,
      "Ġlists": 6557,
      "eries": 6558,
      "PA": 6559,
      "Ġstorm": 6560,
      "orney": 6561,
      "Ġrough": 6562,
      "king": 6563,
      "Ġhouses": 6564,
      "Ġvisitors": 6565,
      "ĠWal": 6566,
      "Ġrealized": 6567,
      "Ġrating": 6568,
      "Ġterror": 6569,
      "Ġproud": 6570,
      "Ġsigns": 6571,
      "Ġpurposes": 6572,
      "Ġmo": 6573,
      "Ġmagazine": 6574,
      "Ġwalls": 6575,
      "Ġreduced": 6576,
      "Ġactor": 6577,
      "Ġacid": 6578,
      "Ġcourses": 6579,
      "Ġliqu": 6580,
      "Ġcomprehensive": 6581,
      "Ġprofessionals": 6582,
      "Mar": 6583,
      "ja": 6584,
      "Ġ1960": 6585,
      "Ġconstant": 6586,
      "Ġpour": 6587,
      "Ġstructures": 6588,
      "Ġindustrial": 6589,
      "Eng": 6590,
      "rc": 6591,
      "ĠElizabeth": 6592,
      "Ġsees": 6593,
      "yes": 6594,
      "ĠLight": 6595,
      "ĠGame": 6596,
      "Ġordered": 6597,
      "Ġteach": 6598,
      "ĠLand": 6599,
      "Ġwalked": 6600,
      "ras": 6601,
      "ĠLog": 6602,
      "afe": 6603,
      "Ġexecutive": 6604,
      "Ġ36": 6605,
      "ĠWeek": 6606,
      "Ġsam": 6607,
      "Ġwire": 6608,
      "ĠMos": 6609,
      "Ġrid": 6610,
      "Go": 6611,
      "ĠSpecial": 6612,
      "Ġchain": 6613,
      "Ġattempts": 6614,
      "ĠObama": 6615,
      "Ġhero": 6616,
      "arios": 6617,
      "Ġfrequency": 6618,
      "Ġboat": 6619,
      "Ġarchitecture": 6620,
      "EST": 6621,
      "Ġpod": 6622,
      "Ġchat": 6623,
      "LA": 6624,
      "Ġwearing": 6625,
      "Ġempty": 6626,
      "othesis": 6627,
      "Ġdogs": 6628,
      "ĠBattle": 6629,
      "Ġinterests": 6630,
      "Ġconsequ": 6631,
      "Ġclar": 6632,
      "Ġreferred": 6633,
      "she": 6634,
      "hire": 6635,
      "img": 6636,
      "ĠEnt": 6637,
      "ĠRay": 6638,
      "ĠSwed": 6639,
      "ĠBeach": 6640,
      "Ġawarded": 6641,
      "Ġrapid": 6642,
      "Ġpatterns": 6643,
      "agram": 6644,
      "ĠLike": 6645,
      "Ġ=>": 6646,
      "Ġpainting": 6647,
      "ĠAmericans": 6648,
      "Ġconflict": 6649,
      "Ġton": 6650,
      "Ġwitness": 6651,
      "Ġcloser": 6652,
      "Ġaspects": 6653,
      "Ġinstrument": 6654,
      "Ġsuc": 6655,
      "isters": 6656,
      "aval": 6657,
      "Ġmarkets": 6658,
      "Ġcommission": 6659,
      "dis": 6660,
      "Ġwelcome": 6661,
      "Ġcircum": 6662,
      "Ġwal": 6663,
      "iana": 6664,
      "ĠNY": 6665,
      "Er": 6666,
      "Ġtests": 6667,
      "Back": 6668,
      "ĠNorthern": 6669,
      "Ġmotion": 6670,
      "ĠJournal": 6671,
      "Ġsouthern": 6672,
      "kes": 6673,
      "ili": 6674,
      "Ġadop": 6675,
      "ĠBack": 6676,
      "ìĹĲ": 6677,
      "æİ": 6678,
      "Ġaccommod": 6679,
      "weight": 6680,
      "Ġpassing": 6681,
      "Ġrecording": 6682,
      "Ġsuggested": 6683,
      "Ġring": 6684,
      "æĸ¹": 6685,
      "Trans": 6686,
      "oker": 6687,
      "Ġengineering": 6688,
      "åį": 6689,
      "ĠPM": 6690,
      "ĠBritain": 6691,
      "Ġexcited": 6692,
      "Ġbuying": 6693,
      "Ġmuseum": 6694,
      "ĠCustom": 6695,
      "ĠForce": 6696,
      "During": 6697,
      "Ġsuccessfully": 6698,
      "State": 6699,
      "Ġbridge": 6700,
      "ĠSecurity": 6701,
      "Ġdesigns": 6702,
      "Ġextended": 6703,
      "Ġidentified": 6704,
      "utely": 6705,
      "otal": 6706,
      "brev": 6707,
      "ĠLear": 6708,
      "Ġopinion": 6709,
      "');": 6710,
      "Ġwriters": 6711,
      "hemat": 6712,
      "Ġassign": 6713,
      "ĠGal": 6714,
      "Ġfunding": 6715,
      "BIN": 6716,
      "Ġguests": 6717,
      "61": 6718,
      "cript": 6719,
      "oute": 6720,
      "Ġagreed": 6721,
      "hetic": 6722,
      "ĠGen": 6723,
      "Ġwealth": 6724,
      "Ġsugar": 6725,
      "apping": 6726,
      "Ġpositions": 6727,
      "ycl": 6728,
      "Ġprofile": 6729,
      "flow": 6730,
      "Ġfruit": 6731,
      "Ġcommitted": 6732,
      "Ġcontrast": 6733,
      "éĹ": 6734,
      "sk": 6735,
      "Out": 6736,
      "ylvania": 6737,
      "oster": 6738,
      "0000": 6739,
      "ĠInformation": 6740,
      "Ġresponses": 6741,
      "Ġiniti": 6742,
      "zer": 6743,
      "58": 6744,
      "Ġscr": 6745,
      "Ġencounter": 6746,
      "size": 6747,
      "Ð¾Ð´": 6748,
      "anation": 6749,
      "Ġarguments": 6750,
      "Ġìŀ": 6751,
      "Ġnegot": 6752,
      "Ġauthent": 6753,
      "ĠOl": 6754,
      "Ġsexual": 6755,
      "?\".": 6756,
      "Ġorg": 6757,
      "iveness": 6758,
      "inals": 6759,
      "Other": 6760,
      "Ġoccurs": 6761,
      "Ġdeploy": 6762,
      "Ġiron": 6763,
      "Ġtaste": 6764,
      "ãģĹ": 6765,
      "Ġessay": 6766,
      "press": 6767,
      "Ġwouldn": 6768,
      "erate": 6769,
      "inem": 6770,
      "Ġfurniture": 6771,
      "Ġgrew": 6772,
      "ĠLim": 6773,
      "Ġseeking": 6774,
      "Ġforg": 6775,
      "ĠLEA": 6776,
      "ĠQuestion": 6777,
      "Ġsubsc": 6778,
      "Ġthumb": 6779,
      "okes": 6780,
      "ĠFar": 6781,
      "claim": 6782,
      "Ġtall": 6783,
      "ells": 6784,
      "Ġ()": 6785,
      "Ġresponsibility": 6786,
      "ìĬ": 6787,
      "Ġissued": 6788,
      "ĠFestival": 6789,
      "ati": 6790,
      "Gener": 6791,
      "Ġalcoh": 6792,
      "Ġmurder": 6793,
      "å½": 6794,
      "Ġquiet": 6795,
      "Ġ['": 6796,
      "03": 6797,
      "ĠMaster": 6798,
      "Ġcream": 6799,
      "Ġlanguages": 6800,
      "Ġgreatest": 6801,
      "Ġholiday": 6802,
      "System": 6803,
      "Ġdialogue": 6804,
      "Ġconsistent": 6805,
      "Ġdiscount": 6806,
      "Ġnorthern": 6807,
      "ĠArthur": 6808,
      "rick": 6809,
      "Ġnull": 6810,
      "Ġteachers": 6811,
      "Ġweak": 6812,
      "ĠUN": 6813,
      "ĠFrancisco": 6814,
      "lyn": 6815,
      "Ġsac": 6816,
      "ĠIrish": 6817,
      "Ġcleaning": 6818,
      "Ġprofit": 6819,
      "ĠMatt": 6820,
      "Ġhousing": 6821,
      "Why": 6822,
      "ĠSoviet": 6823,
      "å¦Ĥ": 6824,
      "rence": 6825,
      "Ġraise": 6826,
      "ographic": 6827,
      "SA": 6828,
      "ĠDO": 6829,
      "draw": 6830,
      "Ġplausible": 6831,
      "Up": 6832,
      "ĠStand": 6833,
      "Ġsettings": 6834,
      "Ġmenu": 6835,
      "Ġtail": 6836,
      "Ġtechnologies": 6837,
      "Ġstatements": 6838,
      "ponse": 6839,
      "Ð¾Ð³": 6840,
      "ĠÐ½Ð°": 6841,
      "True": 6842,
      "Ġenhance": 6843,
      "å¿": 6844,
      "ilit": 6845,
      "Ġaccurate": 6846,
      "Ġmainly": 6847,
      "ĠAp": 6848,
      "bury": 6849,
      "Ġapparent": 6850,
      "Ġsorry": 6851,
      "çĲ": 6852,
      "Ġcapture": 6853,
      "Ġfaster": 6854,
      "ĠFood": 6855,
      "Ġbrown": 6856,
      "ĠGra": 6857,
      "ĠSea": 6858,
      "07": 6859,
      "ĠLo": 6860,
      "igration": 6861,
      "Ġtracks": 6862,
      "Ġfailure": 6863,
      "Ġsympt": 6864,
      "gypt": 6865,
      "Ġda": 6866,
      "Ġportion": 6867,
      "DF": 6868,
      "Ġeducational": 6869,
      "ĠDIF": 6870,
      "Ġrac": 6871,
      "Ġapartment": 6872,
      "Ġsucceed": 6873,
      "ĠEst": 6874,
      "Ġorganized": 6875,
      "Ġresource": 6876,
      "Ġreput": 6877,
      "ĠÙ": 6878,
      "arry": 6879,
      "ĠNov": 6880,
      "Ġvaluable": 6881,
      "ĠDaniel": 6882,
      "Ġcheap": 6883,
      "ĠTour": 6884,
      "Ġinitially": 6885,
      "tw": 6886,
      "Ġattribute": 6887,
      "Ġaudio": 6888,
      "Ġliterature": 6889,
      "Value": 6890,
      "53": 6891,
      "ione": 6892,
      "Ã£": 6893,
      "Ġlayer": 6894,
      "rete": 6895,
      "Ġsilver": 6896,
      "Ġplanned": 6897,
      "ĠWay": 6898,
      "Ġedition": 6899,
      "ĠSpring": 6900,
      "Ġequation": 6901,
      "ivalent": 6902,
      "rich": 6903,
      "Ġfly": 6904,
      "Ġchosen": 6905,
      "ĠGreek": 6906,
      "lock": 6907,
      "ĠDIFFER": 6908,
      "Ġblank": 6909,
      "ĠReal": 6910,
      "Ġconfir": 6911,
      "Ġjew": 6912,
      "Ġtopics": 6913,
      "ĠMen": 6914,
      "ennis": 6915,
      "Ġphrased": 6916,
      "Ġtruck": 6917,
      "ĠWik": 6918,
      "ocolate": 6919,
      "esome": 6920,
      "Ġsevere": 6921,
      "ĠLEAST": 6922,
      "Ġrom": 6923,
      "ĠDIFFERENT": 6924,
      "Ġpersons": 6925,
      "Ġimpress": 6926,
      "Ġattended": 6927,
      "Ġspecify": 6928,
      "ador": 6929,
      "Ġshel": 6930,
      "Class": 6931,
      "Ġfee": 6932,
      "ĠCommunity": 6933,
      "08": 6934,
      "Ġfactor": 6935,
      "Ġputting": 6936,
      "nam": 6937,
      "ĠRos": 6938,
      "Ġmouth": 6939,
      "Ġloop": 6940,
      "Ġresearc": 6941,
      "Ġguard": 6942,
      "ĠCOMBIN": 6943,
      "Who": 6944,
      "Ġhearing": 6945,
      "98": 6946,
      "ĠBoston": 6947,
      "ĠDie": 6948,
      "Ġprotein": 6949,
      "ĠTre": 6950,
      "Ġchoices": 6951,
      "spans": 6952,
      "Ã¡s": 6953,
      "ë¡": 6954,
      "ĠCall": 6955,
      "Ġupper": 6956,
      "stra": 6957,
      "Ġvirtual": 6958,
      "Ġchampionship": 6959,
      "ando": 6960,
      "Ġpanel": 6961,
      "Ġsight": 6962,
      "Time": 6963,
      "ĠCOMBINATIONS": 6964,
      "()`": 6965,
      "Ġstret": 6966,
      "Are": 6967,
      "56": 6968,
      "ishop": 6969,
      "ĠAnother": 6970,
      "Ġdebt": 6971,
      "war": 6972,
      "Ġdifferences": 6973,
      "Ġinputs": 6974,
      "Note": 6975,
      "Ġaid": 6976,
      "Ġalle": 6977,
      "Ġneighborhood": 6978,
      "Ġaccepted": 6979,
      "rency": 6980,
      "ÑĨ": 6981,
      "Ġautomatically": 6982,
      "Ġbasketball": 6983,
      "ĠâĢ¦": 6984,
      "Ġ48": 6985,
      "\").": 6986,
      "ĠWomen": 6987,
      "Ġ300": 6988,
      "Ġperman": 6989,
      "Ġwidely": 6990,
      "Ð¶": 6991,
      "Ġentre": 6992,
      "Ġ1993": 6993,
      "ĠSummer": 6994,
      "Ġaf": 6995,
      "unting": 6996,
      "ĠToday": 6997,
      "ĠThank": 6998,
      "Ġpurchased": 6999,
      "Ġdepth": 7000,
      "Ġinner": 7001,
      "Ġ},": 7002,
      "éĿ": 7003,
      "ĠCross": 7004,
      "Ġpronouns": 7005,
      "ĠTwitter": 7006,
      "ĠNetwork": 7007,
      "Ġplastic": 7008,
      "Ġrenew": 7009,
      "ĠCho": 7010,
      "ĠJersey": 7011,
      "ĠQueen": 7012,
      "Ġsuitable": 7013,
      "Ġfewer": 7014,
      "Ġunion": 7015,
      "ĠMP": 7016,
      "ĠSir": 7017,
      "Ġcovers": 7018,
      "Ġproducer": 7019,
      "Ġstopped": 7020,
      "ĠBrazil": 7021,
      "Ġmedicine": 7022,
      "Ġvs": 7023,
      "OP": 7024,
      "Ġ33": 7025,
      "Ġpump": 7026,
      "Ġcorporate": 7027,
      "';": 7028,
      "El": 7029,
      "perty": 7030,
      "Ġhighlight": 7031,
      "lar": 7032,
      "lets": 7033,
      "ĠMid": 7034,
      "Ġspons": 7035,
      "Ġ1991": 7036,
      "ĠCentre": 7037,
      "ivered": 7038,
      "Ġlogic": 7039,
      "ultural": 7040,
      "arly": 7041,
      "Ġefficiency": 7042,
      "Ġexecuted": 7043,
      "02": 7044,
      "Ġgoods": 7045,
      "Ġmeat": 7046,
      "obe": 7047,
      "sylvania": 7048,
      "Ġreturning": 7049,
      "($": 7050,
      "ao": 7051,
      "ĠLine": 7052,
      "ãģĮ": 7053,
      "Ġtransportation": 7054,
      "ĠVan": 7055,
      "ĠSpain": 7056,
      "Ġindicate": 7057,
      "Ġconducted": 7058,
      "ĠInstead": 7059,
      "Ġconsists": 7060,
      "Par": 7061,
      "Ġintention": 7062,
      "spec": 7063,
      "uits": 7064,
      "resents": 7065,
      "uting": 7066,
      "Ġarms": 7067,
      "ansas": 7068,
      "Ġbes": 7069,
      "æĦ": 7070,
      "px": 7071,
      "ĠSouthern": 7072,
      "ĠMicrosoft": 7073,
      "ĠBron": 7074,
      "Ġingredients": 7075,
      "ĠRh": 7076,
      "Ġ_": 7077,
      "ãģ¨": 7078,
      "Ġast": 7079,
      "Ġsurvey": 7080,
      "ĠìĿ": 7081,
      "Ġrecognized": 7082,
      "Ġcu": 7083,
      "Ġfamiliar": 7084,
      "Ġdrugs": 7085,
      "Ġnor": 7086,
      "Ġ37": 7087,
      "anes": 7088,
      "ĠMedia": 7089,
      "54": 7090,
      "Ġinstructions": 7091,
      "Ġpregn": 7092,
      "Ġreferences": 7093,
      "IG": 7094,
      "Ġentr": 7095,
      "Ġsignificantly": 7096,
      "Ġearned": 7097,
      "SP": 7098,
      "rix": 7099,
      "Sub": 7100,
      "Ġpoly": 7101,
      "ĠSaint": 7102,
      "Ġcharges": 7103,
      "Ġunknown": 7104,
      "uzz": 7105,
      "Ġemployee": 7106,
      "fe": 7107,
      "ophy": 7108,
      "ãģĦ": 7109,
      "Ġmine": 7110,
      "lines": 7111,
      "ĠOption": 7112,
      "inent": 7113,
      "see": 7114,
      "anche": 7115,
      "ĠFinally": 7116,
      "MA": 7117,
      "Ġcommonly": 7118,
      "Ġfixed": 7119,
      "night": 7120,
      "Ġplenty": 7121,
      "OL": 7122,
      "!\"": 7123,
      "Ġdomain": 7124,
      "Ġassigned": 7125,
      "ìļ": 7126,
      "Ġyounger": 7127,
      "Ġresc": 7128,
      "inst": 7129,
      "Ġposts": 7130,
      "Ġroles": 7131,
      "Ġfighting": 7132,
      "ampion": 7133,
      "orb": 7134,
      "Ġprepare": 7135,
      "Ġbusy": 7136,
      "ĠIP": 7137,
      "unior": 7138,
      "Ġble": 7139,
      "person": 7140,
      "arters": 7141,
      "ìŀ": 7142,
      "Ġsoldiers": 7143,
      "____": 7144,
      "wing": 7145,
      "Ġdiam": 7146,
      "blem": 7147,
      "adel": 7148,
      "Ġoutdoor": 7149,
      "Ġlosing": 7150,
      "æĬ": 7151,
      "Ġconsec": 7152,
      "04": 7153,
      "Ġaccounts": 7154,
      "ë¥¼": 7155,
      "acle": 7156,
      "Ġrelatively": 7157,
      "SON": 7158,
      "oral": 7159,
      "Ġadm": 7160,
      "ĠJewish": 7161,
      "Ġinterface": 7162,
      "ĠJon": 7163,
      "Ġ38": 7164,
      "Ġbon": 7165,
      "ulty": 7166,
      "Ġwindows": 7167,
      "table": 7168,
      "Ġadult": 7169,
      "ĠPacific": 7170,
      "ÑĪ": 7171,
      "Ġrevenue": 7172,
      "CE": 7173,
      "Ġpractical": 7174,
      "Ġguy": 7175,
      "elled": 7176,
      "lib": 7177,
      "Ġwebsites": 7178,
      "ĠConnect": 7179,
      "isms": 7180,
      "pers": 7181,
      "Ġdiscussion": 7182,
      "ç¨": 7183,
      "Ġplanet": 7184,
      "ĠAND": 7185,
      "Ġbatt": 7186,
      "eanwhile": 7187,
      "Ġurban": 7188,
      "ãģ§": 7189,
      "Ġerrors": 7190,
      "orders": 7191,
      "æĶ": 7192,
      "akistan": 7193,
      "ĠJoseph": 7194,
      "Ġinfrast": 7195,
      "Ġadventure": 7196,
      "TV": 7197,
      "url": 7198,
      "rer": 7199,
      "Ġenjoyed": 7200,
      "stream": 7201,
      "Ġestimated": 7202,
      "ĠLittle": 7203,
      "09": 7204,
      "Ġsuggests": 7205,
      "ĠIran": 7206,
      "ĠTechnology": 7207,
      "Ġinters": 7208,
      "Ġbranch": 7209,
      "iat": 7210,
      "Ġgender": 7211,
      "ä¸ĭ": 7212,
      "ownt": 7213,
      "ĠView": 7214,
      "elines": 7215,
      "Ġrub": 7216,
      "istration": 7217,
      "TH": 7218,
      "Ġdesk": 7219,
      "Ġprimarily": 7220,
      "Ġmotiv": 7221,
      "Ġinstallation": 7222,
      "ĠDespite": 7223,
      "Ġhonor": 7224,
      "Ġclosely": 7225,
      "Ġ2021": 7226,
      "ĠEvent": 7227,
      "Ġreject": 7228,
      "encing": 7229,
      "ipedia": 7230,
      "Ġreceiving": 7231,
      "Ġstands": 7232,
      "ĠPython": 7233,
      "Â®": 7234,
      "ĠEmpire": 7235,
      "Ġmail": 7236,
      "Ġoccasion": 7237,
      "Ġsubsequent": 7238,
      "Ġrepresents": 7239,
      "51": 7240,
      "Ġgrade": 7241,
      "Living": 7242,
      "ĠConference": 7243,
      "Ġboys": 7244,
      "itage": 7245,
      "Ġfellow": 7246,
      "Ġextensive": 7247,
      "ĠAri": 7248,
      "stein": 7249,
      "Ġelectronic": 7250,
      "æķ°": 7251,
      "Ġheav": 7252,
      "een": 7253,
      "Ġcolon": 7254,
      "vin": 7255,
      "Ġagric": 7256,
      "km": 7257,
      "Ġmixed": 7258,
      "Ġregularly": 7259,
      "irty": 7260,
      "ĠGi": 7261,
      "Ġwinner": 7262,
      "ĠOhio": 7263,
      "Ġinstitutions": 7264,
      "Ġtelling": 7265,
      "Ġrepresented": 7266,
      "AA": 7267,
      "stone": 7268,
      "Ġaccomp": 7269,
      "Ġretrie": 7270,
      "Ġrecipe": 7271,
      "ups": 7272,
      "iter": 7273,
      "ĠColl": 7274,
      "ĠLook": 7275,
      "Ġconfidence": 7276,
      "Ġemergency": 7277,
      "Ġjoy": 7278,
      "icted": 7279,
      "ĠCarl": 7280,
      "ĠContext": 7281,
      "Ġhat": 7282,
      "ĠRom": 7283,
      "lessly": 7284,
      "Ġflowers": 7285,
      "Ġtaught": 7286,
      "ROM": 7287,
      "Ġversions": 7288,
      "align": 7289,
      "Ġscenarios": 7290,
      "78": 7291,
      "Ġconsole": 7292,
      "ĠOF": 7293,
      "prise": 7294,
      "Ġfrequently": 7295,
      "ether": 7296,
      "ĠNight": 7297,
      "Ġauthority": 7298,
      "prehens": 7299,
      "Ġfreedom": 7300,
      "åĪĨ": 7301,
      "Ġwherever": 7302,
      "parent": 7303,
      "Ġknowing": 7304,
      "62": 7305,
      "Ġtrading": 7306,
      "Ġworry": 7307,
      "tes": 7308,
      "cons": 7309,
      "Ġtur": 7310,
      "antry": 7311,
      "ä½¿": 7312,
      "Ġincorpor": 7313,
      "etch": 7314,
      "Ġdrawn": 7315,
      "Ġremind": 7316,
      "Ġcolumns": 7317,
      "reens": 7318,
      "Ġdecades": 7319,
      "roller": 7320,
      "sen": 7321,
      "stract": 7322,
      "Ġroot": 7323,
      "ginning": 7324,
      "ĠÃ©": 7325,
      "File": 7326,
      "Ġdepos": 7327,
      "idad": 7328,
      "Ġstored": 7329,
      "Ġdoors": 7330,
      "Ġfeaturing": 7331,
      "52": 7332,
      "ĠURL": 7333,
      "Ġarts": 7334,
      "elly": 7335,
      "Ġmovies": 7336,
      "ĠCoast": 7337,
      "ĠEgypt": 7338,
      "%.": 7339,
      "Ġbomb": 7340,
      "Ġinvestigation": 7341,
      "Ġbigger": 7342,
      "Ġauthorities": 7343,
      "ĠYoung": 7344,
      "Ġsuggestions": 7345,
      "Ġju": 7346,
      "Ġcontest": 7347,
      "Ġdesired": 7348,
      "Ġteen": 7349,
      "Ġcaptured": 7350,
      "Ġspoke": 7351,
      "Ġrecon": 7352,
      "oding": 7353,
      "çİ": 7354,
      "lers": 7355,
      "ĠPennsylvania": 7356,
      "oured": 7357,
      "noon": 7358,
      "ira": 7359,
      "Ġstrange": 7360,
      "Ġregional": 7361,
      "Ġlies": 7362,
      "çĶŁ": 7363,
      "Ġunless": 7364,
      "Where": 7365,
      "Ġera": 7366,
      "Ġdelivered": 7367,
      "Ġfees": 7368,
      "ĠIndust": 7369,
      "Ġgro": 7370,
      "ìĿĺ": 7371,
      "Ġnoticed": 7372,
      "ĠBefore": 7373,
      "Ġjudge": 7374,
      "ride": 7375,
      "Ġapproved": 7376,
      "Ġguys": 7377,
      "page": 7378,
      "Ġsalt": 7379,
      "Ġsky": 7380,
      "ĠBul": 7381,
      "ä½ľ": 7382,
      "ĠAff": 7383,
      "ĠLab": 7384,
      "Ġpowers": 7385,
      "acc": 7386,
      "Ġexistence": 7387,
      "ĠFilm": 7388,
      "ĠAD": 7389,
      "Ġhur": 7390,
      "Oh": 7391,
      "Ġhonest": 7392,
      "Ġregistered": 7393,
      "Ġneck": 7394,
      "Ġkilling": 7395,
      "Ġathlet": 7396,
      "level": 7397,
      "Ġconvert": 7398,
      "Ñĸ": 7399,
      "Ġairport": 7400,
      "Ġwidth": 7401,
      "Ġretire": 7402,
      "ĠStart": 7403,
      "Ã£o": 7404,
      "ocated": 7405,
      "Ġyellow": 7406,
      "Ġsupposed": 7407,
      "Write": 7408,
      "Ġguest": 7409,
      "icial": 7410,
      "Ġencourage": 7411,
      "Ġtweet": 7412,
      "Ġintelligence": 7413,
      "ĠĠĠĠĠĠĠĠĠĠĠĠĠĠĠĠĠĠĠĠĠĠĠ": 7414,
      "ĠHistor": 7415,
      "Ġnarrow": 7416,
      "ä¸º": 7417,
      "Ġprovider": 7418,
      "Ġconsumer": 7419,
      "ĠGar": 7420,
      "Ġinfl": 7421,
      "ba": 7422,
      "Ġbringing": 7423,
      "Ġseasons": 7424,
      "Ġviolence": 7425,
      "Ġrecru": 7426,
      "Ġalter": 7427,
      "Ġtab": 7428,
      "å¥": 7429,
      "Ġplate": 7430,
      "Ġlights": 7431,
      "Ġtrained": 7432,
      "ĠRam": 7433,
      "ĠHor": 7434,
      "ĠTO": 7435,
      "ĠMichigan": 7436,
      "otic": 7437,
      "çĲĨ": 7438,
      "Ġcreates": 7439,
      "Ġadults": 7440,
      "ĠAwards": 7441,
      "Ġperforming": 7442,
      "Ġinfrastructure": 7443,
      "ĠÃł": 7444,
      "ĠDom": 7445,
      "Since": 7446,
      "ĠKen": 7447,
      "Ge": 7448,
      "ribe": 7449,
      "Ġconstit": 7450,
      "Ġperspective": 7451,
      "Che": 7452,
      "Ġremote": 7453,
      "Ġclaimed": 7454,
      "Ġwestern": 7455,
      "Ġstood": 7456,
      "Thank": 7457,
      "Ġspaces": 7458,
      "iest": 7459,
      "ĠGiven": 7460,
      "Ġslowly": 7461,
      "ĠExt": 7462,
      "ĠDig": 7463,
      "Ġenable": 7464,
      "Ġsymptoms": 7465,
      "ocument": 7466,
      "Ġauth": 7467,
      "Ġwww": 7468,
      "ĠWord": 7469,
      "Def": 7470,
      "06": 7471,
      "AB": 7472,
      "Ġrequests": 7473,
      "Ġfigures": 7474,
      "lected": 7475,
      "Ġ1989": 7476,
      "Ġelevator": 7477,
      "umin": 7478,
      "Ġinstruction": 7479,
      "iro": 7480,
      "ĠWales": 7481,
      "ibilities": 7482,
      "Ġfabric": 7483,
      "ulous": 7484,
      "La": 7485,
      "Ġultimately": 7486,
      "Ġ49": 7487,
      "LC": 7488,
      "ront": 7489,
      "Ð½Ð°": 7490,
      "active": 7491,
      "Ġachieved": 7492,
      "Ġalive": 7493,
      "Ġexpertise": 7494,
      "iser": 7495,
      "Ġpra": 7496,
      "ĠPass": 7497,
      "ĠAud": 7498,
      "rovers": 7499,
      "Ġlux": 7500,
      "Ġtea": 7501,
      "Ġinvent": 7502,
      "Ġnoun": 7503,
      "low": 7504,
      "estyle": 7505,
      "Ġminim": 7506,
      "ounded": 7507,
      "ĠOnline": 7508,
      "ĠLibrary": 7509,
      "ĠScotland": 7510,
      "option": 7511,
      "ĠAndrew": 7512,
      "phy": 7513,
      "around": 7514,
      "Ġau": 7515,
      "Ġsan": 7516,
      "Ġencount": 7517,
      "Ġocean": 7518,
      "Ġsole": 7519,
      "burgh": 7520,
      "ĠFederal": 7521,
      "Ġupdates": 7522,
      "ãģ¦": 7523,
      "ĠHon": 7524,
      "wan": 7525,
      "ĠLast": 7526,
      "Comm": 7527,
      "ĠInf": 7528,
      "Inst": 7529,
      "cha": 7530,
      "style": 7531,
      "Ġassociation": 7532,
      "ÑĤÐ°": 7533,
      "Ġincident": 7534,
      "Ġ34": 7535,
      "Ġbike": 7536,
      "ĠGeorgia": 7537,
      "Ġ64": 7538,
      "Ġtor": 7539,
      "raq": 7540,
      "ĠFamily": 7541,
      "ĠCas": 7542,
      "Ġdefend": 7543,
      "ĠIII": 7544,
      "ĠMic": 7545,
      "ela": 7546,
      "ê°": 7547,
      "ĠWH": 7548,
      "Ġtherapy": 7549,
      "Just": 7550,
      "Ġbattery": 7551,
      "ila": 7552,
      "Ġzone": 7553,
      "uts": 7554,
      "Ġaggreg": 7555,
      "Ġcircumst": 7556,
      "ugh": 7557,
      "ERE": 7558,
      "ÐµÐ½Ð¸": 7559,
      "ĠPack": 7560,
      "inity": 7561,
      "aylor": 7562,
      "Ġintern": 7563,
      "='": 7564,
      "mes": 7565,
      "ificial": 7566,
      "æĢ§": 7567,
      "Ġfasc": 7568,
      "().": 7569,
      "Ġmachines": 7570,
      "Ġcolour": 7571,
      "Ġprotected": 7572,
      "UM": 7573,
      "pan": 7574,
      "Ġinterpret": 7575,
      "Ġassistant": 7576,
      "ĠPen": 7577,
      "ĠPolice": 7578,
      "Ġnuclear": 7579,
      "Ġexciting": 7580,
      "enny": 7581,
      "ĠBi": 7582,
      "Ġregions": 7583,
      "Rep": 7584,
      "Ġsituations": 7585,
      "Ġphotograph": 7586,
      "According": 7587,
      "Ġhttps": 7588,
      "éľ": 7589,
      "ĠSus": 7590,
      "gage": 7591,
      "Ġreaders": 7592,
      "Me": 7593,
      "car": 7594,
      "Ġdish": 7595,
      "Ġadvertising": 7596,
      "vas": 7597,
      "Ġphen": 7598,
      "abet": 7599,
      "ĠOlympics": 7600,
      "Ġfrag": 7601,
      "Ġsubmit": 7602,
      "Ġstudied": 7603,
      "Click": 7604,
      "Ġactress": 7605,
      "GB": 7606,
      "alty": 7607,
      "Ġvibr": 7608,
      "ĠStan": 7609,
      "Ġicon": 7610,
      "Another": 7611,
      "Ġgifts": 7612,
      "ĠPo": 7613,
      "ĠProt": 7614,
      "ĠWild": 7615,
      "Ġok": 7616,
      "aints": 7617,
      "Ġcontemporary": 7618,
      "Ġpure": 7619,
      "umes": 7620,
      "frame": 7621,
      "Ġworldwide": 7622,
      "Ġcompetitive": 7623,
      "hered": 7624,
      "Ġabandon": 7625,
      "Ġcou": 7626,
      "una": 7627,
      "ĠUsing": 7628,
      "Ġhealthcare": 7629,
      "Ġcrucial": 7630,
      "Ġincreases": 7631,
      "Ġtrouble": 7632,
      "ĠAndroid": 7633,
      "Ġconsidering": 7634,
      "Ġfalls": 7635,
      "ĠAsh": 7636,
      "Ġmilk": 7637,
      "ĠOnly": 7638,
      "ĠLiber": 7639,
      "Create": 7640,
      "Ġdegrees": 7641,
      "ĠDate": 7642,
      "Ġstyles": 7643,
      "index": 7644,
      "Ġbodies": 7645,
      "79": 7646,
      "ĠÎ": 7647,
      "Ġbass": 7648,
      "ques": 7649,
      "Ġrisks": 7650,
      "Ġbutter": 7651,
      "Ġdepends": 7652,
      "Ġfavour": 7653,
      "uster": 7654,
      "Ġspeaking": 7655,
      "ologist": 7656,
      "ĠField": 7657,
      "Ġdefine": 7658,
      "ĠSong": 7659,
      "Ġille": 7660,
      "Once": 7661,
      "Ġdenote": 7662,
      "Ġunderst": 7663,
      "Ġliber": 7664,
      "æĮ": 7665,
      "Ġbeliefs": 7666,
      "Phone": 7667,
      "enth": 7668,
      "Ġcasino": 7669,
      "ĠCro": 7670,
      "anna": 7671,
      "Thanks": 7672,
      "gas": 7673,
      "ĠNick": 7674,
      "plete": 7675,
      "ĠPop": 7676,
      "ĠGirl": 7677,
      "Ġhabit": 7678,
      "ĠHand": 7679,
      "ĠKent": 7680,
      "Ġlake": 7681,
      "å®ļ": 7682,
      "86": 7683,
      "Ġrealize": 7684,
      "Ġawards": 7685,
      "ĠEqu": 7686,
      "Ġregister": 7687,
      "Ġ});": 7688,
      "Ġscholars": 7689,
      "iors": 7690,
      "Ġconcerned": 7691,
      "Ġconnects": 7692,
      "Ġdiverse": 7693,
      "shire": 7694,
      "Ġvast": 7695,
      "Ġtournament": 7696,
      "è¿Ļ": 7697,
      "Ġalumni": 7698,
      "FA": 7699,
      "iger": 7700,
      "ĠRadio": 7701,
      "Ġdirectory": 7702,
      "++++": 7703,
      "Ġmagic": 7704,
      "ĠClick": 7705,
      "group": 7706,
      "VD": 7707,
      "Ġdelay": 7708,
      "Ġdangerous": 7709,
      "Ġwarn": 7710,
      "cknow": 7711,
      "Ġconfiguration": 7712,
      "ĠEdward": 7713,
      "Ġdump": 7714,
      "ji": 7715,
      "ĠEp": 7716,
      "Ġvisiting": 7717,
      "Ġcriminal": 7718,
      "Ġdefinition": 7719,
      "unc": 7720,
      "æĪĲ": 7721,
      "post": 7722,
      "Ġrestaurants": 7723,
      "lik": 7724,
      "Ġcomplic": 7725,
      "ç§": 7726,
      "Ġenth": 7727,
      "Ġcouncil": 7728,
      "Ġtroops": 7729,
      "Ġtow": 7730,
      "Ġdrawing": 7731,
      "Ġmedal": 7732,
      "aka": 7733,
      "anged": 7734,
      "Ġcompare": 7735,
      "erg": 7736,
      "bal": 7737,
      "Ġsurgery": 7738,
      "ĠCir": 7739,
      "æĸĩ": 7740,
      "Ġinnovative": 7741,
      "Ġtypical": 7742,
      "ĠCivil": 7743,
      "Ġparticipate": 7744,
      "Ġphase": 7745,
      "oga": 7746,
      "Ġsoil": 7747,
      "Ġlunch": 7748,
      "Ġshock": 7749,
      "Ġtechnique": 7750,
      "roduction": 7751,
      "Ġtitles": 7752,
      "ĠFair": 7753,
      "Ġhydro": 7754,
      "ĠMedical": 7755,
      "Ġoccurred": 7756,
      "Ġ1988": 7757,
      "Ġfro": 7758,
      "ante": 7759,
      "ĠTherefore": 7760,
      "Ġ=&": 7761,
      "Ġintent": 7762,
      "cular": 7763,
      "æĽ": 7764,
      "adow": 7765,
      "Ġreliable": 7766,
      "anny": 7767,
      "Ġsolar": 7768,
      "uh": 7769,
      "Ġinterior": 7770,
      "Ġexcess": 7771,
      "Ġinstitution": 7772,
      "Ġinspect": 7773,
      "ĠMach": 7774,
      "uten": 7775,
      "ĠNorm": 7776,
      "ints": 7777,
      "Ġarrive": 7778,
      "Ġcycle": 7779,
      "Ġdrivers": 7780,
      "ĠNavy": 7781,
      "inton": 7782,
      "ko": 7783,
      "image": 7784,
      "athan": 7785,
      "****": 7786,
      "Ġclimb": 7787,
      "awa": 7788,
      "ĠMah": 7789,
      "ĠPakistan": 7790,
      "Ġmeal": 7791,
      "lishing": 7792,
      "Ġdining": 7793,
      "ĠCode": 7794,
      "ĠBrook": 7795,
      "Ġtight": 7796,
      "ĠRepublican": 7797,
      "Ġemotion": 7798,
      "Ġsupports": 7799,
      "Ġbowl": 7800,
      "Ġguidance": 7801,
      "ĠPoint": 7802,
      "Ġcharged": 7803,
      "osa": 7804,
      "Ġafternoon": 7805,
      "arrant": 7806,
      "Ġcooking": 7807,
      "tra": 7808,
      "ĠCEO": 7809,
      "Ġentirely": 7810,
      "æ³ķ": 7811,
      "ĠTake": 7812,
      "arks": 7813,
      "Ġfulf": 7814,
      "obb": 7815,
      "Ġspiritual": 7816,
      "ĠÐ±": 7817,
      "ĠBern": 7818,
      "ĠFind": 7819,
      "ĠWhich": 7820,
      "Ġwheel": 7821,
      "Ġusage": 7822,
      "Ġshares": 7823,
      "ĠLater": 7824,
      "Set": 7825,
      "Ġsad": 7826,
      "Ġconfront": 7827,
      "oking": 7828,
      "inois": 7829,
      "asts": 7830,
      "Ġpasses": 7831,
      "iform": 7832,
      "Ġcampus": 7833,
      "LECT": 7834,
      "appy": 7835,
      "eller": 7836,
      "levant": 7837,
      "ĠWikipedia": 7838,
      "May": 7839,
      "Ġabsolutely": 7840,
      "Ġtreated": 7841,
      "Co": 7842,
      "Ġresistance": 7843,
      "ĠBroad": 7844,
      "endar": 7845,
      "ĠSenate": 7846,
      "Ġvocals": 7847,
      "Ġregulations": 7848,
      "bec": 7849,
      "Ġcontainer": 7850,
      "ĠTer": 7851,
      "Ġpotentially": 7852,
      "Ġsaved": 7853,
      "ido": 7854,
      "Ġreform": 7855,
      "Ġconsecutive": 7856,
      "ãģ¾": 7857,
      "Ġ75": 7858,
      "isa": 7859,
      "èĩª": 7860,
      "nergy": 7861,
      "ĠEastern": 7862,
      "Ġclothes": 7863,
      "Ġmanufacturing": 7864,
      "mo": 7865,
      "ĠRod": 7866,
      "AG": 7867,
      "Ġ1950": 7868,
      "ĠRead": 7869,
      "bi": 7870,
      "Ġobst": 7871,
      "Ġresolution": 7872,
      "mal": 7873,
      "Pre": 7874,
      "Ġbirthday": 7875,
      "Ġbaseball": 7876,
      "utor": 7877,
      "Ġplatforms": 7878,
      "comp": 7879,
      "inth": 7880,
      "Item": 7881,
      "map": 7882,
      "lements": 7883,
      "Ġlandscape": 7884,
      "uma": 7885,
      "Ġdram": 7886,
      "Ġshipping": 7887,
      "oli": 7888,
      "aine": 7889,
      "ĠHarr": 7890,
      "igen": 7891,
      "Ġpersonality": 7892,
      "Ġsearching": 7893,
      "title": 7894,
      "Ġboot": 7895,
      "Ġspr": 7896,
      "ĠThrough": 7897,
      "ĠDar": 7898,
      "ĠAdministr": 7899,
      "Ġpicked": 7900,
      "Ġ2022": 7901,
      "ĠIraq": 7902,
      "Ġregul": 7903,
      "Ġvisited": 7904,
      "Ġparking": 7905,
      "Ġmassive": 7906,
      "ĠThree": 7907,
      "ĠInvest": 7908,
      "ĠEconom": 7909,
      "long": 7910,
      "Ġfeelings": 7911,
      "Ġdropped": 7912,
      "amber": 7913,
      "ĠHave": 7914,
      "Ġinfect": 7915,
      "Ġdollars": 7916,
      "ossible": 7917,
      "Ġhundreds": 7918,
      "icket": 7919,
      "amil": 7920,
      "Ġclubs": 7921,
      "ĠBrad": 7922,
      "Ġshooting": 7923,
      "ĠFour": 7924,
      "Ġcarefully": 7925,
      "Ġbrowser": 7926,
      "Ġflood": 7927,
      "python": 7928,
      "Per": 7929,
      "åĪ°": 7930,
      "Ġweapons": 7931,
      "Ġmoves": 7932,
      "gely": 7933,
      "Sure": 7934,
      "that": 7935,
      "ĠExpl": 7936,
      "Ġtransition": 7937,
      "ĠWat": 7938,
      "ĠSher": 7939,
      "Ġextension": 7940,
      "ĠParliament": 7941,
      "å±": 7942,
      "adelph": 7943,
      "lywood": 7944,
      "åĵ": 7945,
      "Ġdoubt": 7946,
      "2000": 7947,
      "Post": 7948,
      "Ġcommitment": 7949,
      "ceived": 7950,
      "ĠKorea": 7951,
      "Ġformula": 7952,
      "Ġexplained": 7953,
      "ĠSanta": 7954,
      "Ġalgorithm": 7955,
      "ui": 7956,
      "Ġmissed": 7957,
      "Ġnetworks": 7958,
      "Ġreader": 7959,
      "Ġtough": 7960,
      "ima": 7961,
      "ĠDun": 7962,
      "Em": 7963,
      "Sec": 7964,
      "ĠImp": 7965,
      "Ġdefeated": 7966,
      "obs": 7967,
      "ĠJr": 7968,
      "Bel": 7969,
      "Ġlatter": 7970,
      "Ġalongside": 7971,
      "Ġpued": 7972,
      "php": 7973,
      "Ġmarked": 7974,
      "ĠOtt": 7975,
      "Ġoutcome": 7976,
      "Ġsurf": 7977,
      "Ġlicense": 7978,
      "Ġattributes": 7979,
      "Ġcutting": 7980,
      "Ġfaced": 7981,
      "ixture": 7982,
      "IR": 7983,
      "ls": 7984,
      "Ġannounce": 7985,
      "ĠViet": 7986,
      "Ġsurprise": 7987,
      "Ġtalks": 7988,
      "ĠSecretary": 7989,
      "Ġalcohol": 7990,
      "ĠWalk": 7991,
      "ective": 7992,
      "Ġped": 7993,
      "Ġfundament": 7994,
      "Ġpolitics": 7995,
      "Ġnurs": 7996,
      "Ġfacing": 7997,
      "Date": 7998,
      "trans": 7999,
      "omet": 8000,
      "ĠBal": 8001,
      "Ġovers": 8002,
      "Ġodd": 8003,
      "Ġorigin": 8004,
      "Ġauto": 8005,
      "Ġnewspaper": 8006,
      "ĠLin": 8007,
      "Ġcrisis": 8008,
      "comm": 8009,
      "olis": 8010,
      "Ġassets": 8011,
      "Error": 8012,
      "Ġrecognition": 8013,
      "ĠCost": 8014,
      "Ġrug": 8015,
      "Ġ1987": 8016,
      "æıĲ": 8017,
      "angers": 8018,
      "angle": 8019,
      "Ġcandidates": 8020,
      "Ġ39": 8021,
      "Ġjustice": 8022,
      "adelphia": 8023,
      "ran": 8024,
      "onto": 8025,
      "Ġcapabilities": 8026,
      "Ġgrown": 8027,
      "Ġexited": 8028,
      "Ġsolo": 8029,
      "Ġ42": 8030,
      "Ġemployment": 8031,
      "Ġliquid": 8032,
      "ĠWin": 8033,
      "ä¸Ĭ": 8034,
      "Ġunex": 8035,
      "ĠTri": 8036,
      "ingly": 8037,
      "Ġcalculate": 8038,
      "ĠNext": 8039,
      "Object": 8040,
      "íķľ": 8041,
      "Ġstatic": 8042,
      "ĠLatin": 8043,
      "Ġpassword": 8044,
      "Ġplane": 8045,
      "Ġobtained": 8046,
      "width": 8047,
      "Ġchocolate": 8048,
      "ĠExper": 8049,
      "ĠDutch": 8050,
      "eler": 8051,
      "é¡": 8052,
      "Ġ1986": 8053,
      "`,": 8054,
      "arts": 8055,
      "-&": 8056,
      "Ġ400": 8057,
      "Ġbread": 8058,
      "Ġsupplies": 8059,
      "Ġscheduled": 8060,
      "rics": 8061,
      "Ġevaluate": 8062,
      "Ġagents": 8063,
      "Ġprofessor": 8064,
      "Ġactors": 8065,
      "Ġcomplexity": 8066,
      "Ġveter": 8067,
      "aled": 8068,
      "ĠĠĠĠĠĠĠĠĠĠĠĠĠĠĠĠĠĠĠĠĠĠĠĠĠĠĠ": 8069,
      "Ġanywhere": 8070,
      "ĠUnivers": 8071,
      "aya": 8072,
      "ĠBase": 8073,
      "bro": 8074,
      "ÑĤÐ¸": 8075,
      "ĠSS": 8076,
      "center": 8077,
      "prene": 8078,
      "Ġrecover": 8079,
      "Aut": 8080,
      "OW": 8081,
      "Ġconvention": 8082,
      "Ġacknow": 8083,
      "Ġships": 8084,
      "ĠPrince": 8085,
      "Ġdebate": 8086,
      "Ġcontrovers": 8087,
      "ondition": 8088,
      "ĠAuthor": 8089,
      "?âĢĿ": 8090,
      "Ġdomestic": 8091,
      "owned": 8092,
      "xx": 8093,
      "ĠĠĠĠčĊ": 8094,
      "ĠCapt": 8095,
      "Ġgrass": 8096,
      "Ġgained": 8097,
      "Ġpaying": 8098,
      "Ġlargely": 8099,
      "ushing": 8100,
      "Key": 8101,
      "Ġpip": 8102,
      "çĤ": 8103,
      "agues": 8104,
      "rum": 8105,
      "Ġoblig": 8106,
      "Ġlongest": 8107,
      "Ġtowns": 8108,
      "comes": 8109,
      "Ġcollaboration": 8110,
      "2006": 8111,
      "ĠHarry": 8112,
      "ĠFox": 8113,
      "ambiguous": 8114,
      "Ġreducing": 8115,
      "Ġrepeated": 8116,
      "relevant": 8117,
      "ĠRyan": 8118,
      "Ġeld": 8119,
      "ucks": 8120,
      "Service": 8121,
      "Ġconclusion": 8122,
      "oval": 8123,
      "Ø±": 8124,
      "ë¡ľ": 8125,
      "Ġmere": 8126,
      "Ġsingles": 8127,
      "ÙĨ": 8128,
      "Beginning": 8129,
      "Ġcontained": 8130,
      "rell": 8131,
      "ĠSon": 8132,
      "Ġunambiguous": 8133,
      "Exception": 8134,
      "Ġcollected": 8135,
      "Ġsheet": 8136,
      "ĠBra": 8137,
      "ync": 8138,
      "93": 8139,
      "law": 8140,
      "Ġrul": 8141,
      "ĠVill": 8142,
      "Ġsin": 8143,
      "Ġforever": 8144,
      "Ġconsumers": 8145,
      "Any": 8146,
      "Ġacting": 8147,
      "Ġfoods": 8148,
      "ĠPhilipp": 8149,
      "ĠÐ·": 8150,
      "CD": 8151,
      "ĠDou": 8152,
      "ĠFac": 8153,
      "ĠAvenue": 8154,
      "nie": 8155,
      "fol": 8156,
      "Ġdestination": 8157,
      "%)": 8158,
      "Ġdispl": 8159,
      "æĥ": 8160,
      "Ġboost": 8161,
      "Ġparameters": 8162,
      "Ġdeals": 8163,
      "Ġpersonnel": 8164,
      "ĠPub": 8165,
      "Ġadvoc": 8166,
      "Ġmodule": 8167,
      "asters": 8168,
      "ecess": 8169,
      "ĠPortug": 8170,
      "ĠRon": 8171,
      "ĠBudd": 8172,
      "ĠEss": 8173,
      "Ġcooper": 8174,
      "ĠControl": 8175,
      "ĠConf": 8176,
      "éľĢ": 8177,
      "ificate": 8178,
      "ĠLive": 8179,
      "Ġgent": 8180,
      "ATE": 8181,
      "Ġprocedure": 8182,
      "Ġapps": 8183,
      "dney": 8184,
      "sl": 8185,
      "ogether": 8186,
      "erves": 8187,
      "Ġoperated": 8188,
      "umer": 8189,
      "Ġinformed": 8190,
      "ãĥ¼": 8191,
      "Ġ1984": 8192,
      "Ġanx": 8193,
      "ãģŁ": 8194,
      "ĠUk": 8195,
      "Ġfifth": 8196,
      "ancer": 8197,
      "Ġagencies": 8198,
      "Ġtank": 8199,
      "Ġrecovery": 8200,
      "prehension": 8201,
      "length": 8202,
      "inch": 8203,
      "Ġìł": 8204,
      "ĠPatri": 8205,
      "Ġreplacement": 8206,
      "ulpt": 8207,
      "ĠBon": 8208,
      "False": 8209,
      "ÑĢÐ¾": 8210,
      "Every": 8211,
      "last": 8212,
      "Ġexplains": 8213,
      "Ġconfirmed": 8214,
      "Ġax": 8215,
      "Step": 8216,
      "Ġnewly": 8217,
      "span": 8218,
      "Ġequivalent": 8219,
      "Ġlikes": 8220,
      "Mus": 8221,
      "Ġappreciate": 8222,
      "Ġentertainment": 8223,
      "Ġmunicipality": 8224,
      "Ġtu": 8225,
      "Ġduty": 8226,
      "ĠOx": 8227,
      "Ġtickets": 8228,
      "ĠRE": 8229,
      "cs": 8230,
      "Ġformal": 8231,
      "ĠLew": 8232,
      "é«": 8233,
      "Ġlegs": 8234,
      "Ġevol": 8235,
      "Ġyield": 8236,
      "ifer": 8237,
      "Ġpercentage": 8238,
      "Ġhistoric": 8239,
      "hy": 8240,
      "ĠON": 8241,
      "Ġtalent": 8242,
      "ĠAsian": 8243,
      "Ġbroke": 8244,
      "Ġlie": 8245,
      "esterday": 8246,
      "ÐºÐ¸": 8247,
      "uls": 8248,
      "Ġcircumstances": 8249,
      "jump": 8250,
      "Ġsubt": 8251,
      "Ġresearchers": 8252,
      "Ġoperate": 8253,
      "ãģ¯": 8254,
      "Ġbear": 8255,
      "Ġvul": 8256,
      "83": 8257,
      "Ġfoundation": 8258,
      "OD": 8259,
      "icide": 8260,
      "Ġaccessible": 8261,
      "annels": 8262,
      "ĠIllinois": 8263,
      "ä½¿çĶ¨": 8264,
      "Ne": 8265,
      "ogen": 8266,
      "Ġmodified": 8267,
      "BI": 8268,
      "ĠLind": 8269,
      "Ġlisting": 8270,
      "Ġsimpler": 8271,
      "Ġpm": 8272,
      "osit": 8273,
      "ĠDub": 8274,
      "Ġapproaches": 8275,
      "Ġexceed": 8276,
      "ĠSteel": 8277,
      "TP": 8278,
      "Ġbelieves": 8279,
      "ĠSubjective": 8280,
      "Ġsubstant": 8281,
      "Ġrecognize": 8282,
      "Ġmal": 8283,
      "rice": 8284,
      "Ġdivided": 8285,
      "ĠSE": 8286,
      "Ġacts": 8287,
      "FF": 8288,
      "ĠAdv": 8289,
      "Ġmyst": 8290,
      "ĠFurther": 8291,
      "Ġ1985": 8292,
      "anz": 8293,
      "Ġreferring": 8294,
      "Ġbrands": 8295,
      "Ġengage": 8296,
      "ĠLy": 8297,
      "!!!": 8298,
      "Two": 8299,
      "iary": 8300,
      "Ent": 8301,
      "ĠHospital": 8302,
      "Ġupload": 8303,
      "Ġdisput": 8304,
      "ä½ł": 8305,
      "Ġcos": 8306,
      "Ġrefers": 8307,
      "Ġaffil": 8308,
      "comprehension": 8309,
      "fall": 8310,
      "Ġproviders": 8311,
      "Ġdrama": 8312,
      "Ġcm": 8313,
      "ĠHotel": 8314,
      "Ġkeeps": 8315,
      "essed": 8316,
      "Ġneut": 8317,
      "query": 8318,
      "Ġvit": 8319,
      "UP": 8320,
      "ĠVen": 8321,
      "Ġsick": 8322,
      "ĠKong": 8323,
      "é¢": 8324,
      "Ġmatters": 8325,
      "73": 8326,
      "Ġorganic": 8327,
      "ĠEth": 8328,
      "ĠBoy": 8329,
      "Ġlinked": 8330,
      "Ġarrives": 8331,
      "ifier": 8332,
      "Ġofficially": 8333,
      "Ġmanaging": 8334,
      "ĠEmily": 8335,
      "mat": 8336,
      "ĠHou": 8337,
      "script": 8338,
      "Reg": 8339,
      "inson": 8340,
      "Ãł": 8341,
      "Script": 8342,
      "Ġinfo": 8343,
      "uct": 8344,
      "Ġhardware": 8345,
      "Ġacquired": 8346,
      "Ġtradition": 8347,
      "awn": 8348,
      "ito": 8349,
      "Ð»ÑĮ": 8350,
      "Ġourselves": 8351,
      "Ġhook": 8352,
      "Ġexpressed": 8353,
      "acter": 8354,
      "æĻ": 8355,
      "ĠFund": 8356,
      "Ġimprovement": 8357,
      "Ġprinciples": 8358,
      "ĠMir": 8359,
      "ĠWars": 8360,
      "ĠBall": 8361,
      "Last": 8362,
      "Ġdies": 8363,
      "Ġskill": 8364,
      "ì§": 8365,
      "iece": 8366,
      "Ġune": 8367,
      "making": 8368,
      "His": 8369,
      "ned": 8370,
      "Ġkinds": 8371,
      "alo": 8372,
      "Ġmoments": 8373,
      "ĠColumbia": 8374,
      "76": 8375,
      "itled": 8376,
      "VER": 8377,
      "Ġreligion": 8378,
      "Ġlegend": 8379,
      "ĠText": 8380,
      "ĠTrust": 8381,
      "Ġsecondary": 8382,
      "Ġcomedy": 8383,
      "ĠPerform": 8384,
      "Ġsessions": 8385,
      "Ġfantastic": 8386,
      "isk": 8387,
      "Ġnob": 8388,
      "izz": 8389,
      "æį": 8390,
      "Ġvon": 8391,
      "Ġflash": 8392,
      "sey": 8393,
      "ĠBarbara": 8394,
      "Ġsuffered": 8395,
      "Ġconstantly": 8396,
      "iments": 8397,
      "çŃī": 8398,
      "Ġcommittee": 8399,
      "ĠDemocratic": 8400,
      "ĠCook": 8401,
      "eren": 8402,
      "åĳ": 8403,
      "Ġwet": 8404,
      "Event": 8405,
      "ĠYO": 8406,
      "ĠKeep": 8407,
      "ĠAlexander": 8408,
      "Ġrose": 8409,
      "ĠEnding": 8410,
      "Ġarrested": 8411,
      "Ġwins": 8412,
      "Ġheads": 8413,
      "aze": 8414,
      "Ġprivacy": 8415,
      "Ġdestroyed": 8416,
      "Ġchicken": 8417,
      "ĠHa": 8418,
      "Ġcontribute": 8419,
      "Ġrevolution": 8420,
      "Ġaffordable": 8421,
      "liance": 8422,
      "Ġconfirm": 8423,
      "ĠStation": 8424,
      "Ġisol": 8425,
      "ĠKim": 8426,
      "ĠFile": 8427,
      "Ġcorresponding": 8428,
      "Ġmanagers": 8429,
      "Ġdisappoint": 8430,
      "phant": 8431,
      "track": 8432,
      "Ġcrash": 8433,
      "Ġretired": 8434,
      "Which": 8435,
      "vo": 8436,
      "Ġspin": 8437,
      "ĠKey": 8438,
      "ategory": 8439,
      "neg": 8440,
      "etts": 8441,
      "Ġreveals": 8442,
      "Ġstruggle": 8443,
      "CS": 8444,
      "Ġbirds": 8445,
      "ĠAirport": 8446,
      "Image": 8447,
      "ĠJustice": 8448,
      "aron": 8449,
      "->": 8450,
      "Many": 8451,
      "ĠSarah": 8452,
      "osh": 8453,
      "Ġnotable": 8454,
      "achus": 8455,
      "Ġawesome": 8456,
      "Ġsubs": 8457,
      "Ġinsert": 8458,
      "ĠBell": 8459,
      "Ġterritory": 8460,
      "Ġframework": 8461,
      "ĠPot": 8462,
      "alities": 8463,
      "away": 8464,
      "item": 8465,
      "Ġ150": 8466,
      "ĠTony": 8467,
      "ĠTaylor": 8468,
      "Ġexclud": 8469,
      "ĠTurn": 8470,
      "acher": 8471,
      "])": 8472,
      "áº": 8473,
      "Ġjack": 8474,
      "Ġrein": 8475,
      "Ġclassify": 8476,
      "words": 8477,
      "Will": 8478,
      "start": 8479,
      "Ġsustainable": 8480,
      "Ġclinical": 8481,
      "Ġshift": 8482,
      "Ġsending": 8483,
      "ĠRun": 8484,
      "block": 8485,
      "forcement": 8486,
      "herent": 8487,
      "Ġnoise": 8488,
      "Ġlawyer": 8489,
      "ĠAlbert": 8490,
      "Ġmonthly": 8491,
      "Most": 8492,
      "Ġtack": 8493,
      "Ġbanks": 8494,
      "Ġreputation": 8495,
      "Äĩ": 8496,
      "Ġdur": 8497,
      "Ġhandling": 8498,
      "ospit": 8499,
      "ez": 8500,
      "ĠExec": 8501,
      "Part": 8502,
      "ĠLi": 8503,
      "Ġca": 8504,
      "Ġvariables": 8505,
      "Ġadvis": 8506,
      "zona": 8507,
      "vy": 8508,
      "Ġseam": 8509,
      "Ġmit": 8510,
      "Ġformation": 8511,
      "example": 8512,
      "worth": 8513,
      "main": 8514,
      "Ġengagement": 8515,
      "Ġmathemat": 8516,
      "Ġfold": 8517,
      "Ġcarrying": 8518,
      "Ġimproving": 8519,
      "Ġprocedures": 8520,
      "Ġembr": 8521,
      "Ġcharacteristics": 8522,
      "Ġhits": 8523,
      "ĠHTML": 8524,
      "ĠTheatre": 8525,
      "Ġkil": 8526,
      "PT": 8527,
      "Ġticket": 8528,
      "¸°": 8529,
      "Ġlicens": 8530,
      "Ġtotally": 8531,
      "Ġeveryday": 8532,
      "fil": 8533,
      "oven": 8534,
      "ĠOR": 8535,
      "Ġpresentation": 8536,
      "rate": 8537,
      "ĠBBC": 8538,
      "ĠGlobal": 8539,
      "ĠName": 8540,
      "Ġglad": 8541,
      "Ġdynamic": 8542,
      "opher": 8543,
      "ĠCommon": 8544,
      "Ġattached": 8545,
      "åĩº": 8546,
      "ĠLas": 8547,
      "Ġcheese": 8548,
      "ĠRest": 8549,
      "ãģª": 8550,
      "Ġhosted": 8551,
      "Ġec": 8552,
      "ĠRen": 8553,
      "71": 8554,
      "aga": 8555,
      "ĠTurk": 8556,
      "Ġdefeat": 8557,
      "Ġwave": 8558,
      "rets": 8559,
      "unct": 8560,
      "Īĺ": 8561,
      "Ġsaving": 8562,
      "Ġprime": 8563,
      "ĠFord": 8564,
      "wa": 8565,
      "Ġ{'": 8566,
      "aded": 8567,
      "pton": 8568,
      "ĠGuard": 8569,
      "ĠPhiladelphia": 8570,
      "Ġbreakfast": 8571,
      "aten": 8572,
      "Fact": 8573,
      "Ġdrinking": 8574,
      "Ġengaged": 8575,
      "Ġfestival": 8576,
      "owntown": 8577,
      "Ġ44": 8578,
      "Ġinnovation": 8579,
      "Ġadopted": 8580,
      "Ġadds": 8581,
      "91": 8582,
      "ĠØ§": 8583,
      "true": 8584,
      "ĠChildren": 8585,
      "Ġongoing": 8586,
      "Ġpossibility": 8587,
      "found": 8588,
      "Ġgang": 8589,
      "ĠGenerated": 8590,
      "81": 8591,
      "Ġcomposed": 8592,
      "Ġteeth": 8593,
      "Ġ1983": 8594,
      "fortunately": 8595,
      "ĠRog": 8596,
      "Ġappointment": 8597,
      "Ġinvestors": 8598,
      "Ġcodes": 8599,
      "anth": 8600,
      "Ġresidential": 8601,
      "Ġ1000": 8602,
      "Ġkeys": 8603,
      "ĠPrime": 8604,
      "ĠHard": 8605,
      "Ġclause": 8606,
      "Ġawareness": 8607,
      "`.": 8608,
      "Ġperformances": 8609,
      "ĠReport": 8610,
      "ĠBridge": 8611,
      "json": 8612,
      "ĠMajor": 8613,
      "evin": 8614,
      "ĠCorporation": 8615,
      "Ġspeakers": 8616,
      "Ġ___": 8617,
      "achusetts": 8618,
      "Ġstruck": 8619,
      "base": 8620,
      "owing": 8621,
      "ĠMrs": 8622,
      "aining": 8623,
      "94": 8624,
      "AV": 8625,
      "Ġincreasingly": 8626,
      "92": 8627,
      "ĠCreek": 8628,
      "len": 8629,
      "Ġpulled": 8630,
      "ĠWilson": 8631,
      "Ġcombat": 8632,
      "ĠCub": 8633,
      "Ġ65": 8634,
      "Ġimpossible": 8635,
      "Ð¾Ð¹": 8636,
      "Ġmonitoring": 8637,
      "Ġsizes": 8638,
      "actions": 8639,
      "ÙĬ": 8640,
      "Ġcontrolled": 8641,
      "ĠCharlie": 8642,
      "ellect": 8643,
      "Ġdelicious": 8644,
      "Ġthorough": 8645,
      "ĠKar": 8646,
      "Ġrailway": 8647,
      "Ġcoal": 8648,
      "Ġsuddenly": 8649,
      "Äģ": 8650,
      "Ġvent": 8651,
      "Ġgolf": 8652,
      "84": 8653,
      "Ġpit": 8654,
      "Ġcrop": 8655,
      "Ġgranted": 8656,
      "ĠÑĥ": 8657,
      "ç¤": 8658,
      "you": 8659,
      "Ġreaching": 8660,
      "Read": 8661,
      "berry": 8662,
      "Ġvo": 8663,
      "ĠBang": 8664,
      "iva": 8665,
      "Ġbat": 8666,
      "Ġprogramme": 8667,
      "max": 8668,
      "Ġexpansion": 8669,
      "Ġfishing": 8670,
      "Ġclothing": 8671,
      "Ġinjuries": 8672,
      "organ": 8673,
      "Ġscientists": 8674,
      "ĠSpace": 8675,
      "Ġlighting": 8676,
      "Ġvess": 8677,
      "Ġconnections": 8678,
      "CP": 8679,
      "cers": 8680,
      "ðŁ": 8681,
      "Ġcomo": 8682,
      "Ġrig": 8683,
      "Ġphenomen": 8684,
      "missions": 8685,
      "Ġhappening": 8686,
      "Ġestablishments": 8687,
      "Ġrural": 8688,
      "Ġchecks": 8689,
      "gener": 8690,
      "Ġtou": 8691,
      "ĠWrit": 8692,
      "athy": 8693,
      "Ġru": 8694,
      "aret": 8695,
      "åĲĪ": 8696,
      "Ġstrike": 8697,
      "ĠArea": 8698,
      "Ġeastern": 8699,
      "itzer": 8700,
      "eld": 8701,
      "Ġauthors": 8702,
      "æĤ": 8703,
      "Ġflower": 8704,
      "Ġchapter": 8705,
      "Ġlabels": 8706,
      "ĠLtd": 8707,
      "ĠArm": 8708,
      "Ġprove": 8709,
      "ĠBand": 8710,
      "Ġbackward": 8711,
      "Ġ1979": 8712,
      "ĠForest": 8713,
      "Ġperfectly": 8714,
      "ĠNFL": 8715,
      "ĠEric": 8716,
      "Ġà": 8717,
      "Ġmac": 8718,
      "Rem": 8719,
      "Ġcooked": 8720,
      "isted": 8721,
      "Ġscoring": 8722,
      "Ġvisible": 8723,
      "Ġcycl": 8724,
      "open": 8725,
      "ĉĉ": 8726,
      "Ġmeetings": 8727,
      "ĠSupreme": 8728,
      "Ġinvited": 8729,
      "Ġrelief": 8730,
      "Ġ1982": 8731,
      "Ġpremise": 8732,
      "74": 8733,
      "ĠPhot": 8734,
      "ĠColorado": 8735,
      "Ġdreams": 8736,
      "chant": 8737,
      "72": 8738,
      "Ġfacilit": 8739,
      "Ġfactory": 8740,
      "ĠDam": 8741,
      "ictional": 8742,
      "Ġmath": 8743,
      "Ġassessment": 8744,
      "Ġobserved": 8745,
      "Ġlistening": 8746,
      "obby": 8747,
      "ĠMA": 8748,
      "Ġpermanent": 8749,
      "ĠSat": 8750,
      "Ġdecides": 8751,
      "Ġrear": 8752,
      "NS": 8753,
      "Ġusual": 8754,
      "Ġabuse": 8755,
      "Ġsmile": 8756,
      "merce": 8757,
      "ĠJess": 8758,
      "Ġreward": 8759,
      "iami": 8760,
      "Ser": 8761,
      "Ġworse": 8762,
      "Ġunexpected": 8763,
      "Ġê°": 8764,
      "ĠBuilding": 8765,
      "Ġensuring": 8766,
      "æ±": 8767,
      "Ġfiction": 8768,
      "Ġalert": 8769,
      "ÐµÑĢ": 8770,
      "onder": 8771,
      "ashed": 8772,
      "ervative": 8773,
      "82": 8774,
      "Ġgrab": 8775,
      "endo": 8776,
      "Ġincredible": 8777,
      "Ġtiss": 8778,
      "éĻ": 8779,
      "Ġinjured": 8780,
      "ĠRome": 8781,
      "Ġreverse": 8782,
      "ĠAnton": 8783,
      "enter": 8784,
      "ĠJane": 8785,
      "Ġdecade": 8786,
      "').": 8787,
      "Ġlayout": 8788,
      "Ä±": 8789,
      "Ġknock": 8790,
      "Ġzero": 8791,
      "English": 8792,
      "Ġpoem": 8793,
      "Well": 8794,
      "ĠHD": 8795,
      "write": 8796,
      "Ġcha": 8797,
      "Ġinhab": 8798,
      "yo": 8799,
      "Path": 8800,
      "Ġmand": 8801,
      "ĠBat": 8802,
      "oses": 8803,
      "ĠSydney": 8804,
      "front": 8805,
      "ĠVictoria": 8806,
      "ĠInn": 8807,
      "æ¨": 8808,
      "allas": 8809,
      "åľ°": 8810,
      "Ġpiano": 8811,
      "olt": 8812,
      "ĠEnergy": 8813,
      "aping": 8814,
      "Ġracing": 8815,
      "More": 8816,
      "ĠBa": 8817,
      "Ġjewel": 8818,
      "answer": 8819,
      "ĠAh": 8820,
      "ĠChair": 8821,
      "ĠÑĩ": 8822,
      "roke": 8823,
      "Ġmyster": 8824,
      "lights": 8825,
      "Then": 8826,
      "Ġpray": 8827,
      "holders": 8828,
      "Ġrepresentation": 8829,
      "ĠSa": 8830,
      "ĠUser": 8831,
      "Ġshoes": 8832,
      "Ġproof": 8833,
      "Ġtrends": 8834,
      "itative": 8835,
      "ĠOcean": 8836,
      "Ġloves": 8837,
      "Ġguarantee": 8838,
      "Ġcommunicate": 8839,
      "Ġeggs": 8840,
      "Ġlaugh": 8841,
      "iler": 8842,
      "istent": 8843,
      "Ġvulner": 8844,
      "connect": 8845,
      "Ġmanual": 8846,
      "ographer": 8847,
      "ĠLes": 8848,
      "rog": 8849,
      "Ġinches": 8850,
      "Ġexpectations": 8851,
      "Ġbow": 8852,
      "Ġsufficient": 8853,
      "Ġwarrant": 8854,
      "aska": 8855,
      "Ġlovely": 8856,
      "apore": 8857,
      "ĠProfessor": 8858,
      "ĠBrian": 8859,
      "Ġdeclared": 8860,
      "Ġartificial": 8861,
      "Ġelig": 8862,
      "Ġrepetition": 8863,
      "Ġreasonable": 8864,
      "Ġunus": 8865,
      "Ġflying": 8866,
      "Ġsymbols": 8867,
      "Ġsquad": 8868,
      "Ġenthus": 8869,
      "Ġpharm": 8870,
      "ĠManager": 8871,
      "nesota": 8872,
      "ĠAk": 8873,
      "ĠEU": 8874,
      "Sim": 8875,
      "Mod": 8876,
      "cat": 8877,
      "bell": 8878,
      "heim": 8879,
      "stal": 8880,
      "ĠEs": 8881,
      "Count": 8882,
      "nce": 8883,
      "Ġperiods": 8884,
      "æĭ": 8885,
      "Ġdisplayed": 8886,
      "rypt": 8887,
      "button": 8888,
      "ĠiPhone": 8889,
      "Ġseats": 8890,
      "Ġfrustr": 8891,
      "ä»ĸ": 8892,
      "èª": 8893,
      "Ġ55": 8894,
      "ĠKenn": 8895,
      "Ġvend": 8896,
      "Ġdemocr": 8897,
      "Ġindeed": 8898,
      "HP": 8899,
      "Ġprincipal": 8900,
      "world": 8901,
      "Book": 8902,
      "ĠMassachusetts": 8903,
      "ĠMaybe": 8904,
      "Ġ×": 8905,
      "Ġpapers": 8906,
      "Ġremark": 8907,
      "Ġpayments": 8908,
      "ĠSupport": 8909,
      "ĠAbout": 8910,
      "Ġshell": 8911,
      "Ġaccuracy": 8912,
      "Ġscheme": 8913,
      "Ġexplanation": 8914,
      "Ġoccas": 8915,
      "teen": 8916,
      "endment": 8917,
      "ĠSaf": 8918,
      "ĠSin": 8919,
      "raid": 8920,
      "Ġtested": 8921,
      "razy": 8922,
      "ĠGreg": 8923,
      "Ġratio": 8924,
      "ĠCA": 8925,
      "ilst": 8926,
      "Ġgod": 8927,
      "Ġresulted": 8928,
      "roduce": 8929,
      "ivals": 8930,
      "Ġsculpt": 8931,
      "Ġbust": 8932,
      "ishment": 8933,
      "Ġlibr": 8934,
      "ĠOp": 8935,
      "Ġexposure": 8936,
      "Ġmurd": 8937,
      "Ġintroduction": 8938,
      "ĠMountain": 8939,
      "Ġbreaks": 8940,
      "ĠSoft": 8941,
      "Ġcable": 8942,
      "andy": 8943,
      "Ġsurrounded": 8944,
      "mony": 8945,
      "pir": 8946,
      "ypes": 8947,
      "Ġtwenty": 8948,
      "init": 8949,
      "Ġhurt": 8950,
      "Ġchannels": 8951,
      "uality": 8952,
      "Ġminister": 8953,
      "wich": 8954,
      "ĠAz": 8955,
      "ĠJean": 8956,
      "Ð²Ð°": 8957,
      "Ġease": 8958,
      "Ġhypothesis": 8959,
      "Ġtags": 8960,
      "Ġpartnership": 8961,
      "Ġreporting": 8962,
      "eer": 8963,
      "child": 8964,
      "Ġpolitician": 8965,
      "Ġstim": 8966,
      "ĠUr": 8967,
      "Ġcriteria": 8968,
      "aire": 8969,
      "Ġdiscussed": 8970,
      "Ġimpressive": 8971,
      "elle": 8972,
      "dec": 8973,
      "Ġillness": 8974,
      "Ġcompleting": 8975,
      "Ġattorney": 8976,
      "stack": 8977,
      "Ġbuff": 8978,
      "tion": 8979,
      "Ġoffices": 8980,
      "Ġintegrated": 8981,
      "Ġgarage": 8982,
      "Ġsuspect": 8983,
      "Ġtip": 8984,
      "TE": 8985,
      "Ġuncom": 8986,
      "leep": 8987,
      "Ġillegal": 8988,
      "Ġfra": 8989,
      "ĠAdam": 8990,
      "Ġdevelopers": 8991,
      "sky": 8992,
      "ĠTal": 8993,
      "ictionary": 8994,
      "ĠHouston": 8995,
      "HS": 8996,
      "ĠMinnesota": 8997,
      "Ġqualified": 8998,
      "etary": 8999,
      "Ġminimal": 9000,
      "Ġsought": 9001,
      "Ġtrick": 9002,
      "Ġepisodes": 9003,
      "ÐºÐ°": 9004,
      "amps": 9005,
      "ĠSn": 9006,
      "orable": 9007,
      "Ġhoping": 9008,
      "ĠSP": 9009,
      "Ġproducing": 9010,
      "ĠAccess": 9011,
      "ĠComput": 9012,
      "Ġprotest": 9013,
      "Ġcake": 9014,
      "ĠBru": 9015,
      "ĠOlympic": 9016,
      "Ġchose": 9017,
      "ĠEag": 9018,
      "thew": 9019,
      "ĠJay": 9020,
      "Ġ1981": 9021,
      "aste": 9022,
      "Ġsatisfact": 9023,
      "Ġboss": 9024,
      "Ġretirement": 9025,
      "Ġtoken": 9026,
      "Ġsed": 9027,
      "Ġamounts": 9028,
      "ĠHong": 9029,
      "Ġcompens": 9030,
      "Ð»Ñı": 9031,
      "Ġconstructed": 9032,
      "Ġsuffering": 9033,
      "check": 9034,
      "ĠDisney": 9035,
      "Ġopens": 9036,
      "Ġnormally": 9037,
      "quarters": 9038,
      "Ġhyper": 9039,
      "Ġluck": 9040,
      "ĠHoly": 9041,
      "Ġ1976": 9042,
      "Ġpremium": 9043,
      "ĠVerm": 9044,
      "ova": 9045,
      "ĠNa": 9046,
      "ordan": 9047,
      "ami": 9048,
      "umble": 9049,
      "Ġobvious": 9050,
      "Ġregistration": 9051,
      "ĠArizona": 9052,
      "ĠCab": 9053,
      "Ġcompat": 9054,
      "Ġrecommendations": 9055,
      "Although": 9056,
      "åĲĮ": 9057,
      "Ġdesigner": 9058,
      "Ġstrategic": 9059,
      "Ġmusicians": 9060,
      "Ġstretch": 9061,
      "db": 9062,
      "Ġparameter": 9063,
      "Ġdeck": 9064,
      "Ġshower": 9065,
      "Ġalleged": 9066,
      "emble": 9067,
      "ghan": 9068,
      "ĠLow": 9069,
      "Ùħ": 9070,
      "Ġsettlement": 9071,
      "whel": 9072,
      "Ġ---": 9073,
      "ĠOs": 9074,
      "Ġlifestyle": 9075,
      "sters": 9076,
      "ĠGolden": 9077,
      "Ãª": 9078,
      "Ġdecom": 9079,
      "ĠSant": 9080,
      "ĠType": 9081,
      "profit": 9082,
      "Ġfo": 9083,
      "Based": 9084,
      "Ġnode": 9085,
      "Ġconscious": 9086,
      "Ġforth": 9087,
      "earing": 9088,
      "eding": 9089,
      "Ġoutstanding": 9090,
      "ilation": 9091,
      "ĠOnt": 9092,
      "olitan": 9093,
      "åĮĸ": 9094,
      "elcome": 9095,
      "Ġbare": 9096,
      "Ġages": 9097,
      "ç®": 9098,
      "Ġoperator": 9099,
      "ĠFull": 9100,
      "Ġprovince": 9101,
      "Ġnic": 9102,
      "Ġstake": 9103,
      "ĠLady": 9104,
      "ĠMS": 9105,
      "Ġscenes": 9106,
      "core": 9107,
      "web": 9108,
      "Ġstrict": 9109,
      "speech": 9110,
      "Ġsemi": 9111,
      "rett": 9112,
      "Ġhate": 9113,
      "Ġelectrical": 9114,
      "Ġdelight": 9115,
      "Ġworst": 9116,
      "ĠAtlantic": 9117,
      "Ġbeer": 9118,
      "Ã©e": 9119,
      "Ġsauce": 9120,
      "ĠBible": 9121,
      "ĠOrganization": 9122,
      "Ġexists": 9123,
      "Ġemployed": 9124,
      "Ġfaculty": 9125,
      "Ġvert": 9126,
      "eman": 9127,
      "Ġconfident": 9128,
      "Ġnouns": 9129,
      "300": 9130,
      "ìĭ": 9131,
      "Ġpresents": 9132,
      "ĠSign": 9133,
      "Ġexpanded": 9134,
      "ĠCountry": 9135,
      "Ġenemy": 9136,
      "layout": 9137,
      "Inter": 9138,
      "Ġyard": 9139,
      "label": 9140,
      "di": 9141,
      "itable": 9142,
      "Ġapproached": 9143,
      "bourne": 9144,
      "Men": 9145,
      "Ġimmediate": 9146,
      "Ġfiled": 9147,
      "oln": 9148,
      "eah": 9149,
      "iones": 9150,
      "Ġliterary": 9151,
      "Log": 9152,
      "Ġcontrols": 9153,
      "Ġconcrete": 9154,
      "Ġwatched": 9155,
      "ĠThose": 9156,
      "));": 9157,
      "Ġimagine": 9158,
      "ĠRoute": 9159,
      "Ġadj": 9160,
      "Ġbreath": 9161,
      "Ġlessons": 9162,
      "Ġ41": 9163,
      "ials": 9164,
      "ĠFollowing": 9165,
      "Ġswimming": 9166,
      "ĠStone": 9167,
      "Ġsurprised": 9168,
      "ĠNic": 9169,
      "Ġstops": 9170,
      "roit": 9171,
      "Ġsignifies": 9172,
      "Ġsubsequently": 9173,
      "Ġcomputers": 9174,
      "Ġspark": 9175,
      "Ġbrothers": 9176,
      "ĠDescription": 9177,
      "Ġindustries": 9178,
      "asty": 9179,
      "Have": 9180,
      "Ġlapt": 9181,
      "Ġcelebrate": 9182,
      "gian": 9183,
      "Ġsharp": 9184,
      "Ġexpenses": 9185,
      "writer": 9186,
      "Ð»Ð°": 9187,
      "Ġmaintaining": 9188,
      "Request": 9189,
      "Ġprominent": 9190,
      "Model": 9191,
      "Ġcopies": 9192,
      "Ġgraduate": 9193,
      "ĠMiller": 9194,
      "Ġevil": 9195,
      "site": 9196,
      "Ġ1972": 9197,
      "Ġ1974": 9198,
      "å¯¹": 9199,
      "omot": 9200,
      "ĠOak": 9201,
      "Did": 9202,
      "ĠThough": 9203,
      "Ġcrack": 9204,
      "Ġ1978": 9205,
      "Ġbreaking": 9206,
      "ĠHay": 9207,
      "ĠHind": 9208,
      "ados": 9209,
      "Ġimplemented": 9210,
      "Also": 9211,
      "Ġdeeper": 9212,
      "Ġlyr": 9213,
      "Ġdrag": 9214,
      "rows": 9215,
      "omy": 9216,
      "ardens": 9217,
      "ĠKorean": 9218,
      "Ġgentle": 9219,
      "Ġmile": 9220,
      "issions": 9221,
      "orses": 9222,
      "utter": 9223,
      ".@": 9224,
      "embers": 9225,
      "Ġmob": 9226,
      "asant": 9227,
      "ç´": 9228,
      "Ġwalks": 9229,
      "peror": 9230,
      "Ġroy": 9231,
      "Ġcoc": 9232,
      "rible": 9233,
      "Åį": 9234,
      "Ġasc": 9235,
      "erly": 9236,
      "Ġheavily": 9237,
      "ropical": 9238,
      "Tube": 9239,
      "han": 9240,
      "ailing": 9241,
      "ĠToronto": 9242,
      "ëĵ": 9243,
      "\\_\\_": 9244,
      "Ġhang": 9245,
      "agen": 9246,
      "Problem": 9247,
      "ĠGree": 9248,
      "Ġexclusive": 9249,
      "ĠRoll": 9250,
      "ç¨ĭ": 9251,
      "model": 9252,
      "ĠBow": 9253,
      "Ġfaces": 9254,
      "Prov": 9255,
      "har": 9256,
      "Ġproposal": 9257,
      "Ġtransferred": 9258,
      "Ñī": 9259,
      "Ġ43": 9260,
      "Ġdoctors": 9261,
      "ername": 9262,
      "è§£": 9263,
      "ĠScottish": 9264,
      "ĠFred": 9265,
      "ĠAnth": 9266,
      "Ġflexible": 9267,
      "Ġclassroom": 9268,
      "Ġlimits": 9269,
      "Ġuniverse": 9270,
      "Ġquotations": 9271,
      "wind": 9272,
      "Ġpitch": 9273,
      "Ġtone": 9274,
      "ĠOrig": 9275,
      "Ġtut": 9276,
      "Ġ@.@": 9277,
      "gi": 9278,
      "ista": 9279,
      "yers": 9280,
      "Ġcontinuing": 9281,
      "Ġupcoming": 9282,
      "Ġclock": 9283,
      "ĠCorn": 9284,
      "Ġcompletion": 9285,
      "æĹ¶": 9286,
      "ĠAC": 9287,
      "ĠKnow": 9288,
      "æµ": 9289,
      "Ġadmin": 9290,
      "Ġloyal": 9291,
      "ĠDVD": 9292,
      "Ġmini": 9293,
      "Ġwooden": 9294,
      "iversary": 9295,
      "content": 9296,
      "Ġentrance": 9297,
      "xic": 9298,
      "oir": 9299,
      "Ġhide": 9300,
      "Ġtaxes": 9301,
      "ĠMult": 9302,
      "Ġmillions": 9303,
      "oly": 9304,
      "Ġconcentration": 9305,
      "Ġdust": 9306,
      "everal": 9307,
      "uz": 9308,
      "ĠHung": 9309,
      "requ": 9310,
      "Ġemotions": 9311,
      "Ð¾Ð¶": 9312,
      "ĠGro": 9313,
      "Ġentreprene": 9314,
      "Art": 9315,
      "ĠDiego": 9316,
      "Ġthin": 9317,
      "åī": 9318,
      "Ġinject": 9319,
      "mann": 9320,
      "Ġhosting": 9321,
      "Ġchoosing": 9322,
      "ĠStephen": 9323,
      ">&": 9324,
      "Ġinsights": 9325,
      "Ġadministrative": 9326,
      "ĠJason": 9327,
      "Ġhole": 9328,
      "Ġpublication": 9329,
      "Ġreduction": 9330,
      "Ġconsisting": 9331,
      "''": 9332,
      "Ġjoining": 9333,
      "ĠKat": 9334,
      "ĠAR": 9335,
      "Ġexplos": 9336,
      "TS": 9337,
      "Ġnarrative": 9338,
      "Ġsections": 9339,
      "Ġhockey": 9340,
      "Ġwaters": 9341,
      "ĠPlace": 9342,
      "Ke": 9343,
      "Ġscan": 9344,
      "Ġdealing": 9345,
      "Ġconvenient": 9346,
      "ĠCreat": 9347,
      "Ġchampion": 9348,
      "Ġcomposition": 9349,
      "nessee": 9350,
      "Ġther": 9351,
      "Ġvital": 9352,
      "ĠConc": 9353,
      "Ã¡n": 9354,
      "Ġcontributions": 9355,
      "Ġinch": 9356,
      "ĠSav": 9357,
      "United": 9358,
      "ersion": 9359,
      "plates": 9360,
      "ools": 9361,
      "[]": 9362,
      "ĠCH": 9363,
      "bel": 9364,
      "agine": 9365,
      "onna": 9366,
      "ĠÄ": 9367,
      "ĠTable": 9368,
      "åŁ": 9369,
      "Ġ1975": 9370,
      "Ġbottle": 9371,
      "atoes": 9372,
      "Ġfinance": 9373,
      "Ġcomma": 9374,
      "iking": 9375,
      "Ġanticip": 9376,
      "Ġlect": 9377,
      "ĠCambridge": 9378,
      "ĠDoes": 9379,
      "OC": 9380,
      "Ġconsumption": 9381,
      "incess": 9382,
      "irk": 9383,
      "ĠWhether": 9384,
      "Ġje": 9385,
      "ainer": 9386,
      "Ġmembership": 9387,
      "otte": 9388,
      "Option": 9389,
      "Ġattacked": 9390,
      "Ġkit": 9391,
      "rav": 9392,
      "ĠEngineering": 9393,
      "%,": 9394,
      "fa": 9395,
      "Øª": 9396,
      "ĠStadium": 9397,
      "ÑģÑı": 9398,
[...]
